<unk>	0
<s>	0
</s>	0
<pad>	0
▁the	-3.27041
s	-3.35929
▁,	-3.36885
▁a	-3.46468
▁and	-3.63279
▁of	-3.73971
▁to	-4.08199
▁.	-4.08595
-	-4.10459
▁'	-4.17848
▁is	-4.46821
▁in	-4.56708
▁that	-4.57737
▁it	-4.63247
▁with	-4.96384
ing	-5.06222
▁as	-5.15341
▁an	-5.16277
▁	-5.16556
▁film	-5.18195
ly	-5.20802
▁for	-5.22666
t	-5.25594
▁movie	-5.30401
▁its	-5.3252
▁this	-5.41288
ed	-5.48847
▁be	-5.55636
▁you	-5.60072
▁but	-5.62509
▁on	-5.68671
▁n	-5.70967
'	-5.75788
d	-5.78575
▁by	-5.81041
▁one	-5.83394
▁more	-5.86941
▁--	-5.88333
▁not	-5.92819
▁than	-5.92889
y	-5.94706
▁at	-5.96817
▁has	-5.97927
▁so	-5.98524
▁his	-5.99252
▁from	-6.00263
▁about	-6.0048
▁like	-6.03127
▁are	-6.04297
▁all	-6.04361
▁or	-6.06213
▁have	-6.11305
▁most	-6.14842
▁who	-6.20615
▁good	-6.23208
e	-6.27291
▁out	-6.28265
▁story	-6.29139
▁...	-6.34061
▁too	-6.34259
▁i	-6.34705
▁into	-6.35317
▁up	-6.44088
▁no	-6.45527
▁)	-6.46192
ir	-6.50979
▁characters	-6.51508
▁funny	-6.52705
er	-6.54249
▁comedy	-6.5461
▁(	-6.55523
▁just	-6.56838
▁if	-6.57835
ch	-6.5831
▁well	-6.58316
▁even	-6.60985
▁can	-6.61534
▁some	-6.61696
▁does	-6.61841
▁time	-6.62602
▁what	-6.62812
▁much	-6.63277
▁your	-6.65443
▁`	-6.65713
▁will	-6.67288
▁bad	-6.68446
▁little	-6.70902
▁``	-6.72432
▁way	-6.73439
▁very	-6.74338
▁whi	-6.7595
▁feel	-6.76083
▁''	-6.78179
▁love	-6.79479
▁work	-6.80861
▁best	-6.81439
▁life	-6.81689
out	-6.82753
m	-6.8322
▁make	-6.83617
▁he	-6.84039
▁do	-6.84726
▁us	-6.85876
▁been	-6.85885
▁any	-6.87565
a	-6.88963
re	-6.9229
▁enough	-6.92389
▁new	-6.93761
▁look	-6.9441
.	-6.94679
▁we	-6.96834
▁there	-6.98347
al	-6.99325
▁only	-6.9936
▁action	-6.99383
▁director	-7.0084
▁never	-7.01577
▁makes	-7.02252
▁something	-7.02306
▁seem	-7.02545
n	-7.02581
▁humor	-7.03451
se	-7.03727
i	-7.04127
▁through	-7.04286
▁was	-7.04889
r	-7.06243
▁her	-7.07385
es	-7.07918
▁over	-7.08055
▁great	-7.08998
▁get	-7.09055
▁made	-7.10422
▁would	-7.10986
▁own	-7.11643
▁take	-7.12228
▁plot	-7.13914
o	-7.13993
▁see	-7.14501
ve	-7.15268
▁two	-7.15321
▁many	-7.15451
▁they	-7.15598
▁self	-7.15646
▁drama	-7.1566
▁how	-7.15885
▁sense	-7.16658
▁really	-7.16667
▁fun	-7.1913
▁performances	-7.19452
▁movies	-7.21469
▁other	-7.21859
▁off	-7.22086
▁every	-7.2218
▁cast	-7.22196
▁could	-7.22673
▁audience	-7.23303
▁better	-7.23958
▁real	-7.24076
▁such	-7.25265
▁give	-7.25545
▁character	-7.26858
▁heart	-7.26916
▁people	-7.26956
▁long	-7.28125
▁when	-7.28305
▁hard	-7.28754
▁first	-7.29076
▁nothing	-7.31632
▁being	-7.3169
▁down	-7.31882
▁both	-7.31965
▁ever	-7.32439
▁entertaining	-7.33125
▁may	-7.35146
▁often	-7.355
▁b	-7.35654
▁should	-7.35668
on	-7.36363
▁script	-7.36535
▁still	-7.36535
▁old	-7.3724
▁acting	-7.37323
▁world	-7.37413
▁un	-7.37628
▁performance	-7.38428
▁screen	-7.43118
▁:	-7.43696
▁while	-7.4442
▁interesting	-7.44673
▁because	-7.45284
▁s	-7.45338
▁big	-7.45512
▁also	-7.45976
▁human	-7.46223
ll	-7.46714
in	-7.47047
▁them	-7.47805
▁far	-7.47881
▁ca	-7.48171
▁kind	-7.49393
▁another	-7.49724
▁hollywood	-7.50696
▁less	-7.52071
▁keep	-7.52387
▁few	-7.52633
▁watch	-7.52716
▁end	-7.53644
▁films	-7.53711
▁those	-7.54124
▁thriller	-7.54149
▁dialogue	-7.5437
▁minutes	-7.54813
▁find	-7.58083
▁re	-7.6024
▁tale	-7.60332
▁might	-7.60565
▁family	-7.61673
▁star	-7.62152
▁romantic	-7.6272
ness	-7.63162
▁picture	-7.64271
▁year	-7.64456
▁back	-7.64973
▁go	-7.65072
▁cinema	-7.6548
▁moments	-7.65939
▁compelling	-7.66066
▁my	-7.66187
▁man	-7.66618
▁again	-7.66837
▁had	-7.66906
▁actors	-7.66955
▁after	-7.67739
▁rather	-7.67741
g	-7.68555
to	-7.69202
▁almost	-7.69765
▁material	-7.70057
▁visual	-7.70544
▁high	-7.70552
p	-7.70874
▁full	-7.70979
▁care	-7.71727
▁watching	-7.71996
▁documentary	-7.72134
▁seen	-7.72598
▁our	-7.72775
▁right	-7.72881
▁worth	-7.73061
▁d	-7.7357
an	-7.74182
▁itself	-7.74281
▁know	-7.74372
▁part	-7.74415
▁original	-7.74544
▁before	-7.75163
▁sweet	-7.75186
▁under	-7.7527
▁young	-7.75333
▁were	-7.75545
▁me	-7.75663
▁emotional	-7.75874
▁quite	-7.7703
▁art	-7.77336
▁direction	-7.77349
▁fascinating	-7.79573
▁come	-7.79702
▁moving	-7.79921
▁piece	-7.81089
▁between	-7.81206
▁here	-7.81843
▁things	-7.81887
▁comes	-7.82068
▁scenes	-7.83117
▁dull	-7.83427
▁show	-7.84003
▁low	-7.84414
▁comic	-7.84927
▁want	-7.85257
▁experience	-7.85281
▁smart	-7.85519
▁style	-7.85707
or	-7.85772
▁yet	-7.86254
▁american	-7.86319
▁;	-7.86576
▁special	-7.86922
▁music	-7.87176
▁de	-7.87788
▁she	-7.88054
▁bit	-7.88717
c	-7.89225
▁where	-7.8938
▁ultimately	-7.89532
▁going	-7.89533
▁works	-7.89783
▁lot	-7.90069
▁p	-7.90738
▁leave	-7.90983
the	-7.91206
▁making	-7.91973
▁kids	-7.92069
▁anything	-7.92628
▁why	-7.93109
▁worst	-7.93367
▁dark	-7.9354
▁years	-7.93879
▁cinematic	-7.9412
▁clever	-7.94262
▁half	-7.94552
▁laughs	-7.94686
▁enjoyable	-7.94876
▁-	-7.94906
▁manage	-7.95125
▁genre	-7.9523
▁least	-7.9523
▁thing	-7.95328
h	-7.9673
▁beautiful	-7.96972
▁entertainment	-7.97131
u	-7.97709
▁history	-7.97902
▁point	-7.9795
▁sometimes	-7.98292
▁though	-7.98298
▁powerful	-7.98687
st	-7.991
▁subject	-8.00206
▁engaging	-8.0025
▁short	-8.00251
en	-8.00613
of	-8.01286
▁away	-8.01409
▁face	-8.01519
▁together	-8.01907
▁idea	-8.0229
man	-8.0301
▁war	-8.03076
▁theater	-8.03328
▁him	-8.03468
▁turn	-8.03509
▁same	-8.03881
b	-8.04258
▁summer	-8.04278
▁feature	-8.0438
and	-8.04404
▁say	-8.04739
▁head	-8.04875
▁flick	-8.05062
▁enjoy	-8.05083
▁intelligence	-8.05119
▁three	-8.05119
ally	-8.0594
▁narrative	-8.05963
▁m	-8.06201
▁light	-8.06216
▁fresh	-8.06326
▁times	-8.06361
▁amusing	-8.06388
▁intelligent	-8.07093
▁women	-8.07646
▁put	-8.0771
▁once	-8.07907
▁energy	-8.08073
▁power	-8.08206
/	-8.08349
▁screenplay	-8.0851
▁charm	-8.08616
▁did	-8.0868
▁place	-8.0872
▁charming	-8.09566
▁surprisingly	-8.09651
▁last	-8.10259
▁actually	-8.10308
▁solid	-8.1101
th	-8.11627
▁need	-8.11786
▁anyone	-8.12451
▁small	-8.13349
▁think	-8.13419
▁true	-8.13819
▁filmmaking	-8.13855
▁flat	-8.14235
▁mind	-8.14462
▁feeling	-8.14514
▁romance	-8.15209
▁strong	-8.15366
k	-8.15548
▁pretty	-8.15632
▁spirit	-8.15973
▁dumb	-8.16095
▁silly	-8.1656
ous	-8.16661
▁wo	-8.1671
▁around	-8.1708
▁wit	-8.17722
▁t	-8.18006
▁perfect	-8.18496
▁set	-8.189
est	-8.19139
▁simply	-8.19422
l	-8.19658
▁tone	-8.19745
▁horror	-8.19878
▁done	-8.20043
▁classic	-8.20766
▁predictable	-8.20847
▁rich	-8.21083
▁truly	-8.21336
▁dramatic	-8.21377
▁c	-8.21497
age	-8.21586
▁effort	-8.21825
▁fine	-8.22706
▁satisfying	-8.22797
▁portrait	-8.22812
▁goes	-8.22974
▁whole	-8.23018
▁prove	-8.23117
▁deeply	-8.2318
▁offers	-8.23438
▁project	-8.2381
▁past	-8.23824
▁video	-8.24061
▁trying	-8.24689
▁stuff	-8.24817
▁opera	-8.24867
▁always	-8.25325
▁fans	-8.25437
▁v	-8.25467
ers	-8.25621
▁interest	-8.26298
▁rare	-8.2636
▁run	-8.2655
▁premise	-8.27382
▁since	-8.27806
▁quirky	-8.27903
w	-8.27908
▁culture	-8.27911
up	-8.27925
▁beautifully	-8.28119
▁writer	-8.2854
▁co	-8.28592
▁becomes	-8.28627
▁title	-8.28736
able	-8.2896
▁modern	-8.28967
▁matter	-8.28982
▁call	-8.29158
▁hilarious	-8.29471
▁suspense	-8.29472
le	-8.2983
ian	-8.30672
▁wild	-8.3174
▁filmmakers	-8.32065
▁effects	-8.32694
▁series	-8.32716
▁actor	-8.32856
▁?	-8.33266
▁probably	-8.33266
▁touching	-8.33614
▁hold	-8.33737
▁children	-8.33818
▁everyone	-8.33819
▁coming	-8.33924
▁day	-8.3421
▁pleasure	-8.3432
minute	-8.34344
▁h	-8.34762
▁sure	-8.34975
▁lack	-8.35379
▁g	-8.35999
▁familiar	-8.36129
ce	-8.36157
▁then	-8.36231
▁hours	-8.36558
▁level	-8.36617
▁exercise	-8.36627
▁remarkable	-8.36628
▁study	-8.36631
▁especially	-8.37199
▁imagination	-8.37199
▁must	-8.37224
▁wonderful	-8.37234
▁tv	-8.37283
old	-8.3758
▁middle	-8.37783
▁boring	-8.38357
▁easy	-8.38933
▁everything	-8.38933
▁serious	-8.39001
▁hour	-8.39196
ic	-8.39404
off	-8.39794
▁ideas	-8.39801
▁honest	-8.39887
▁reason	-8.39896
ie	-8.39925
▁instead	-8.40106
▁filmmaker	-8.40263
▁play	-8.40341
▁black	-8.40699
▁j	-8.40895
▁mess	-8.40903
ies	-8.41107
▁cheap	-8.4129
▁already	-8.41293
▁e	-8.41588
▁intriguing	-8.41892
▁sad	-8.4193
▁slow	-8.42566
ion	-8.42967
▁cold	-8.43129
▁stand	-8.43711
▁talent	-8.44171
▁recent	-8.44323
▁laugh	-8.44569
▁terrific	-8.44942
▁storytelling	-8.45562
fi	-8.46285
ra	-8.46492
▁stories	-8.46816
▁french	-8.46829
▁camera	-8.46865
▁obvious	-8.46899
el	-8.4695
▁adventure	-8.47215
espite	-8.47427
ne	-8.47567
▁become	-8.47842
▁written	-8.48273
time	-8.48305
▁ending	-8.48425
▁memorable	-8.48727
z	-8.49056
▁inside	-8.49062
▁attempt	-8.49169
▁crime	-8.49416
▁images	-8.49428
▁visually	-8.49914
▁r	-8.49932
▁historical	-8.50022
▁thought	-8.50276
▁utter	-8.50675
▁woman	-8.50753
▁none	-8.50913
▁completely	-8.50995
▁create	-8.51306
▁death	-8.51354
less	-8.51638
▁men	-8.51656
▁gentle	-8.51995
▁beauty	-8.51995
▁talented	-8.5245
▁melodrama	-8.52651
▁live	-8.53195
▁simple	-8.53332
▁ride	-8.53333
▁beyond	-8.5335
ter	-8.53528
▁car	-8.53904
▁jokes	-8.54093
▁near	-8.54241
▁emotionally	-8.54526
▁fails	-8.54534
it	-8.54572
▁above	-8.54723
▁gorgeous	-8.54823
is	-8.55189
▁passion	-8.55371
▁mr	-8.55514
ring	-8.5557
▁bring	-8.55613
having	-8.55795
ity	-8.55967
▁thoughtful	-8.56024
▁complex	-8.56039
▁bland	-8.56049
▁ugly	-8.56064
▁shot	-8.56138
▁help	-8.56314
all	-8.56448
▁himself	-8.56761
▁change	-8.56812
▁tell	-8.56822
▁girl	-8.56901
ar	-8.5704
▁audiences	-8.57144
day	-8.57288
▁let	-8.57396
▁left	-8.57457
▁welcome	-8.57457
▁nor	-8.57656
▁directed	-8.57713
▁believe	-8.57784
▁cliches	-8.58047
▁late	-8.58187
ng	-8.58286
▁warm	-8.5852
▁home	-8.58535
▁likely	-8.58688
▁slight	-8.58858
▁book	-8.58947
▁ma	-8.59454
▁soap	-8.59585
▁huge	-8.596
▁social	-8.59613
ish	-8.59698
▁form	-8.60129
▁line	-8.60227
▁impossible	-8.60336
fashioned	-8.6043
▁viewer	-8.60621
▁rock	-8.60796
each	-8.6096
▁debut	-8.61029
▁different	-8.61029
▁found	-8.61029
▁understand	-8.61121
▁easily	-8.61138
▁sequel	-8.6129
▁stupid	-8.61758
▁deep	-8.61851
at	-8.62023
▁contrived	-8.62494
▁excellent	-8.62494
▁pull	-8.62494
▁writing	-8.62494
▁oscar	-8.62518
▁sex	-8.62967
ry	-8.63174
▁promise	-8.63235
▁tired	-8.63238
▁else	-8.63293
▁sort	-8.63432
f	-8.63907
▁animation	-8.63984
▁otherwise	-8.63987
▁version	-8.64038
▁fairly	-8.64164
▁brilliant	-8.64207
▁lead	-8.64268
▁waste	-8.6448
▁sit	-8.64635
▁comedies	-8.64733
▁sci	-8.65521
▁warmth	-8.65522
▁eyes	-8.65875
▁role	-8.65882
▁message	-8.65899
▁personal	-8.66428
▁particularly	-8.66486
▁moral	-8.66492
▁certainly	-8.66532
▁seat	-8.66691
▁appealing	-8.66918
▁violence	-8.67023
▁wrong	-8.67023
▁add	-8.67273
▁hero	-8.67352
▁top	-8.67449
▁formula	-8.67775
▁lost	-8.67819
▁view	-8.6787
▁now	-8.68031
▁genuine	-8.68034
▁k	-8.68178
▁viewers	-8.68408
▁themselves	-8.68579
▁lacks	-8.6865
ent	-8.68717
year	-8.6879
▁delightful	-8.68827
▁fact	-8.69274
▁either	-8.69367
▁imagine	-8.69367
▁thoroughly	-8.69391
▁step	-8.69394
▁name	-8.69508
▁pay	-8.69851
▁cool	-8.70187
▁pre	-8.70191
▁impressive	-8.70408
▁mean	-8.70487
▁looks	-8.70571
▁sustain	-8.70933
▁creative	-8.70961
▁barely	-8.70962
▁wait	-8.70968
▁sequences	-8.70999
▁teen	-8.71303
▁second	-8.71588
▁treat	-8.71767
▁manner	-8.71793
▁creepy	-8.71817
▁appeal	-8.71877
▁allow	-8.71914
▁nice	-8.7205
▁cliché	-8.72084
▁dead	-8.72192
nearly	-8.72307
▁ambitious	-8.7258
▁quality	-8.72581
id	-8.7263
▁important	-8.72703
▁shows	-8.72705
▁turns	-8.72832
▁gags	-8.72916
▁close	-8.72961
▁along	-8.73214
▁unexpected	-8.734
▁worse	-8.73413
▁winning	-8.73464
▁concept	-8.73504
▁surprising	-8.73683
▁plays	-8.73985
▁master	-8.74215
▁vision	-8.74216
▁!	-8.74226
▁decent	-8.74226
▁john	-8.74269
▁deal	-8.74447
▁pure	-8.74572
▁seeing	-8.74848
▁got	-8.7489
▁four	-8.75031
▁next	-8.7506
▁running	-8.75068
▁engrossing	-8.75099
▁side	-8.75173
ard	-8.75439
▁hand	-8.75636
▁mood	-8.75639
▁adults	-8.75672
▁act	-8.75692
▁fantasy	-8.759
▁walk	-8.76011
▁wh	-8.7608
▁pretentious	-8.76747
▁straight	-8.76747
te	-8.7689
▁clichés	-8.76939
director	-8.77024
▁psychological	-8.77048
▁career	-8.77383
▁worthy	-8.7757
▁major	-8.77602
▁sharp	-8.77626
▁working	-8.77802
▁score	-8.77805
▁unique	-8.77916
▁expect	-8.78039
▁success	-8.78415
▁follow	-8.78464
▁grand	-8.78464
▁tragedy	-8.78464
▁able	-8.78478
▁10	-8.78523
▁lives	-8.78538
ate	-8.78597
▁awful	-8.78783
▁convincing	-8.79334
▁michael	-8.79334
▁monster	-8.79334
▁insight	-8.79375
▁road	-8.79427
▁nature	-8.79455
v	-8.79656
▁entirely	-8.7968
▁attention	-8.80211
▁production	-8.80243
x	-8.80315
▁perfectly	-8.80337
▁approach	-8.81096
▁episode	-8.81096
▁stylish	-8.81097
▁wise	-8.81153
▁class	-8.81317
movie	-8.81411
▁dog	-8.81529
▁odd	-8.81576
▁inventive	-8.8194
▁crowd	-8.81989
▁journey	-8.81989
▁period	-8.81989
▁unsettling	-8.81989
▁job	-8.8201
▁unfunny	-8.82019
▁pro	-8.82041
▁dream	-8.82243
▁usual	-8.82344
▁painful	-8.8235
▁try	-8.82403
▁water	-8.8253
il	-8.82763
▁skill	-8.82904
▁remains	-8.82933
▁pop	-8.82937
▁scene	-8.83065
ably	-8.83503
▁subtle	-8.83708
▁epic	-8.83802
▁future	-8.83813
▁artist	-8.83873
▁neither	-8.84716
▁shallow	-8.84734
▁depth	-8.84772
▁ways	-8.84871
▁fill	-8.85047
▁mystery	-8.85642
▁satire	-8.85642
▁successful	-8.85652
▁dry	-8.85768
▁edge	-8.85797
▁wonder	-8.85883
rate	-8.86009
▁cop	-8.8606
▁2	-8.8619
▁thin	-8.86293
▁win	-8.86488
▁difficult	-8.86576
▁believable	-8.86582
▁reality	-8.86675
▁moment	-8.869
mo	-8.86905
▁clear	-8.87041
til	-8.8715
▁hit	-8.8736
▁sever	-8.87377
dy	-8.87456
▁con	-8.8749
▁tension	-8.8752
▁hip	-8.87603
ism	-8.87891
▁tedious	-8.8792
ant	-8.88321
▁tries	-8.8851
▁elements	-8.88557
▁lacking	-8.88587
▁game	-8.88985
▁sentimental	-8.89087
▁poorly	-8.89907
▁highly	-8.9025
▁provocative	-8.90405
hearted	-8.90407
▁colorful	-8.90411
▁considerable	-8.90429
▁masterpiece	-8.90433
▁use	-8.90824
▁political	-8.90835
▁eye	-8.9089
son	-8.90979
▁ends	-8.91034
▁cut	-8.91203
▁adaptation	-8.91386
▁affection	-8.91387
▁robert	-8.91387
▁smile	-8.91392
▁scary	-8.91464
▁spy	-8.91508
▁reach	-8.9153
▁suffer	-8.91737
▁kid	-8.91792
▁amount	-8.91937
▁open	-8.91979
▁hackneyed	-8.92375
▁sensitive	-8.92375
▁motion	-8.92375
▁cinematography	-8.92392
▁endearing	-8.92429
▁watchable	-8.92477
▁appear	-8.92856
so	-8.93051
▁situations	-8.93099
▁earnest	-8.93337
▁couple	-8.93375
▁stay	-8.93375
▁exact	-8.93378
▁getting	-8.93396
▁disney	-8.93415
▁falls	-8.93427
▁gone	-8.9349
▁storyline	-8.93496
▁greatest	-8.93554
▁pictures	-8.93719
▁finally	-8.93847
▁soul	-8.94038
▁brain	-8.94359
▁single	-8.94387
▁potential	-8.9439
▁heavy	-8.94464
▁parents	-8.94511
▁loud	-8.94542
▁bar	-8.94546
▁pace	-8.95107
▁mark	-8.95167
▁sh	-8.95259
▁pleasant	-8.95407
▁witty	-8.95425
▁depressing	-8.95449
▁animated	-8.95472
▁drag	-8.95981
▁boy	-8.96352
▁possible	-8.96437
▁flaws	-8.96902
▁fire	-8.96912
▁quiet	-8.96933
▁ch	-8.97332
▁touch	-8.97363
▁actress	-8.97387
▁purpose	-8.97448
▁money	-8.97482
▁sea	-8.97487
▁o	-8.9768
▁days	-8.9769
ical	-8.97879
▁ill	-8.98222
▁throughout	-8.98233
▁relationships	-8.98282
▁fast	-8.98408
▁magic	-8.98438
▁grace	-8.98501
▁overcome	-8.98531
▁delivers	-8.98749
▁uses	-8.98758
itting	-8.9883
▁themes	-8.98936
cross	-8.99015
▁given	-8.99027
▁surprise	-8.99069
▁toward	-8.99177
▁present	-8.99202
▁emotions	-8.9927
▁date	-8.99459
ley	-8.99469
▁female	-8.99595
▁insightful	-8.99606
▁wish	-8.99608
▁examination	-8.99685
▁ro	-8.9976
▁deliver	-8.99772
during	-9.00004
▁al	-9.00315
▁carrie	-9.00588
▁la	-9.00662
▁imaginative	-9.0067
▁deft	-9.0067
▁mindless	-9.00718
▁doing	-9.00721
▁pointless	-9.00726
▁school	-9.00981
▁cute	-9.01556
▁problem	-9.01589
▁wood	-9.01712
▁taste	-9.01748
▁spielberg	-9.01773
▁weird	-9.02274
▁20	-9.02404
▁delight	-9.02724
▁frame	-9.02853
▁favor	-9.02856
▁avoid	-9.02856
▁execution	-9.02856
▁intimate	-9.02856
▁target	-9.02856
ether	-9.02856
▁definitely	-9.02902
▁balance	-9.03019
▁minor	-9.03159
▁night	-9.03277
life	-9.03316
▁intense	-9.03412
▁complete	-9.03436
▁poor	-9.03442
▁fall	-9.03915
▁respect	-9.03942
▁ensemble	-9.03967
▁intrigue	-9.03967
▁triumph	-9.03967
▁playful	-9.03984
▁steven	-9.04007
right	-9.04441
what	-9.04523
▁strange	-9.04853
▁captures	-9.04889
▁spiritual	-9.05071
▁forget	-9.0509
▁plain	-9.05091
▁gross	-9.05091
▁memory	-9.05091
▁mild	-9.05091
▁dis	-9.05093
▁pacing	-9.05097
▁urban	-9.05173
▁person	-9.05346
um	-9.05378
▁twists	-9.05682
▁rest	-9.05708
▁mix	-9.0583
▁st	-9.05837
▁york	-9.05838
▁offer	-9.05912
▁share	-9.05941
▁inter	-9.05973
▁exciting	-9.06227
▁release	-9.06227
▁supposed	-9.0625
ial	-9.06278
▁novel	-9.06295
▁told	-9.06303
▁ability	-9.06356
▁forced	-9.06434
ek	-9.06459
▁fight	-9.0666
▁lame	-9.06663
▁deserves	-9.06755
▁delicate	-9.06827
▁recommend	-9.06946
▁tragic	-9.07343
▁truth	-9.07367
▁striking	-9.07376
▁uneven	-9.07376
▁goofy	-9.07442
▁tear	-9.07484
▁joy	-9.07556
▁hate	-9.07752
▁final	-9.07807
▁thinking	-9.0784
▁natural	-9.07978
▁mediocre	-9.08539
▁remake	-9.08539
▁apart	-9.08585
▁ii	-9.08669
▁room	-9.08788
▁sexy	-9.08951
▁figure	-9.09015
us	-9.09464
▁super	-9.09667
▁sexual	-9.09696
▁tiresome	-9.09716
▁tribute	-9.09716
▁someone	-9.09717
▁heartfelt	-9.09724
▁contemporary	-9.0973
▁humanity	-9.09815
▁occasionally	-9.0994
▁surprises	-9.0999
▁case	-9.10257
▁starts	-9.10491
▁emerge	-9.1089
▁conviction	-9.10906
▁evil	-9.10906
▁generic	-9.10906
▁plenty	-9.10906
▁worthwhile	-9.10906
▁sandler	-9.1091
▁living	-9.1091
▁manipulative	-9.10929
▁stale	-9.10931
▁cultural	-9.11007
▁chilling	-9.11044
▁equally	-9.11132
▁le	-9.1116
▁flicks	-9.11193
▁twisted	-9.11268
▁core	-9.11272
▁ra	-9.11348
▁hell	-9.11444
▁vivid	-9.11566
▁lovely	-9.11573
▁nicely	-9.11711
▁fully	-9.11969
▁rip	-9.12059
▁conclusion	-9.12111
▁funnier	-9.12111
▁sophisticated	-9.12111
▁failure	-9.12112
▁hope	-9.1212
▁sub	-9.12126
▁felt	-9.12178
▁ex	-9.12304
▁sincere	-9.1234
▁pass	-9.12616
▁words	-9.12648
▁remember	-9.12701
▁large	-9.12749
made	-9.1276
▁painfully	-9.12846
ped	-9.13078
▁telling	-9.13223
▁happen	-9.13284
▁offensive	-9.1333
▁terrible	-9.1333
▁indie	-9.13384
▁crafted	-9.13752
▁events	-9.13768
▁today	-9.1385
co	-9.13996
▁consider	-9.14042
▁direct	-9.14139
▁fare	-9.14332
▁spark	-9.14555
▁brings	-9.14562
▁remarkably	-9.14566
▁poetry	-9.14567
▁amateurish	-9.14568
▁voice	-9.14583
▁thanks	-9.14593
ary	-9.14627
taking	-9.14822
screen	-9.14882
▁ages	-9.14937
ick	-9.15016
▁pieces	-9.15116
▁ultimate	-9.15272
for	-9.15732
▁vi	-9.15749
▁superficial	-9.15795
▁devoid	-9.15815
▁clarity	-9.15816
▁battle	-9.15819
▁weak	-9.15864
▁playing	-9.15892
▁inspiring	-9.15987
▁situation	-9.16165
▁credit	-9.16264
tic	-9.16365
ral	-9.16467
▁effective	-9.1653
▁acted	-9.1662
▁x	-9.16631
▁party	-9.16897
▁except	-9.17058
▁doubt	-9.17081
▁escape	-9.17081
▁justice	-9.17082
▁studio	-9.17085
ro	-9.1713
mong	-9.17137
▁meandering	-9.1715
▁ga	-9.17631
land	-9.17664
top	-9.17734
ation	-9.17782
▁company	-9.18363
▁energetic	-9.18363
▁strike	-9.18363
▁achievement	-9.18366
▁rarely	-9.18437
▁sick	-9.18444
▁sounds	-9.18445
▁sha	-9.18478
▁sets	-9.18596
▁guy	-9.18808
▁issues	-9.18895
▁clearly	-9.1911
▁refreshing	-9.19186
▁remind	-9.19465
▁funniest	-9.19662
▁product	-9.19664
▁heartwarming	-9.19672
▁guilty	-9.19783
▁li	-9.19968
▁ago	-9.20107
▁inept	-9.20113
▁jo	-9.20208
▁casting	-9.20282
▁strangely	-9.20294
▁cross	-9.20401
▁extreme	-9.20432
▁genuinely	-9.20577
▁gre	-9.20796
▁throw	-9.20888
▁empty	-9.20977
▁extraordinary	-9.20977
▁festival	-9.20977
▁routine	-9.20977
▁sloppy	-9.20977
▁strain	-9.20977
▁substance	-9.20977
▁impact	-9.20979
▁crisp	-9.20979
▁country	-9.21025
▁state	-9.21036
▁realism	-9.21078
ist	-9.21168
▁read	-9.21218
▁value	-9.21517
do	-9.2158
▁start	-9.2163
▁quick	-9.2177
▁color	-9.21893
nce	-9.21896
▁19	-9.22273
ling	-9.2228
▁chemistry	-9.22311
▁cruel	-9.22311
▁derivative	-9.22311
▁frank	-9.22311
▁meditation	-9.22311
▁previous	-9.22311
▁yarn	-9.22311
▁maintain	-9.22311
▁root	-9.22311
▁yourself	-9.22333
▁paper	-9.22335
▁unlike	-9.22369
▁roll	-9.22382
▁wasted	-9.22879
▁chance	-9.22929
good	-9.23093
▁needs	-9.23255
▁viewing	-9.23411
▁ridiculous	-9.23617
▁brutal	-9.23642
▁document	-9.23652
▁annoying	-9.23662
▁politics	-9.23662
▁alone	-9.23662
▁gripping	-9.23666
▁mother	-9.2369
▁load	-9.23722
▁originality	-9.23748
▁law	-9.23761
▁twist	-9.2392
▁gay	-9.23944
▁entire	-9.24487
▁shoot	-9.24495
▁guys	-9.24559
▁trouble	-9.24714
▁bore	-9.24783
▁90	-9.24795
▁wonderfully	-9.24961
▁universal	-9.25032
▁match	-9.25057
▁screenwriter	-9.25062
▁trip	-9.2511
▁sand	-9.25295
▁begins	-9.25353
▁skin	-9.25922
▁pain	-9.26177
▁loss	-9.26411
▁behind	-9.26421
▁devastating	-9.26421
▁excitement	-9.26421
▁glimpse	-9.26421
▁poetic	-9.26424
▁twice	-9.26427
▁attraction	-9.26434
▁save	-9.26458
▁merely	-9.26663
▁sheer	-9.26995
▁please	-9.27164
▁ti	-9.27216
head	-9.27267
▁word	-9.27279
ver	-9.27372
▁questions	-9.27399
▁deserve	-9.27466
▁serve	-9.27521
▁interested	-9.27551
istic	-9.27672
handed	-9.27697
▁paint	-9.27715
▁america	-9.27741
▁authentic	-9.27796
provoking	-9.27829
▁computer	-9.27829
▁promising	-9.27829
▁slapstick	-9.27829
▁unnecessary	-9.27829
▁unusual	-9.27829
▁air	-9.27853
▁tender	-9.27892
▁flawed	-9.27905
▁absolutely	-9.28035
▁detailed	-9.28159
▁bother	-9.28316
▁per	-9.28336
▁extremely	-9.28416
▁ask	-9.28524
▁taken	-9.28591
thin	-9.28733
▁runs	-9.28752
▁mid	-9.29002
▁fashion	-9.29009
as	-9.29166
▁process	-9.29235
▁murder	-9.29258
▁essential	-9.29258
▁popcorn	-9.29258
▁sappy	-9.29258
▁pathetic	-9.2926
▁friendship	-9.29263
▁british	-9.29272
▁grant	-9.29304
ful	-9.29376
▁succeeds	-9.29393
▁problems	-9.29479
like	-9.30046
▁sign	-9.30148
▁frustrating	-9.30155
5	-9.30662
▁japan	-9.30707
▁horrible	-9.30707
▁spectacle	-9.30707
▁typical	-9.30707
▁metaphor	-9.30707
▁served	-9.31153
▁usually	-9.31594
▁chan	-9.31624
ner	-9.31731
▁mu	-9.318
▁di	-9.31903
fer	-9.31914
▁award	-9.31966
▁number	-9.31968
▁virtu	-9.32149
▁alive	-9.32178
▁disaster	-9.32178
▁dreary	-9.32178
▁incredibly	-9.32178
▁mesmerizing	-9.32178
▁opportunity	-9.32178
▁treatment	-9.32178
▁performers	-9.32189
▁wants	-9.32199
vin	-9.32234
▁green	-9.32276
▁mi	-9.32328
▁city	-9.32353
dimensional	-9.32441
▁offering	-9.33031
▁certain	-9.33126
la	-9.33261
▁hardly	-9.33364
▁girls	-9.33559
▁seriously	-9.33569
▁blue	-9.33662
▁eventual	-9.33671
▁street	-9.33672
▁comedic	-9.3368
▁source	-9.33687
▁suspenseful	-9.33696
▁forgettable	-9.3378
▁realistic	-9.33788
▁frequently	-9.33871
be	-9.33898
by	-9.34113
▁die	-9.34188
▁pet	-9.34262
▁refreshingly	-9.34303
ut	-9.34334
night	-9.34607
▁stunning	-9.34627
▁elegant	-9.34634
▁standard	-9.34813
▁shots	-9.35124
▁riveting	-9.35185
▁suggest	-9.35185
▁stock	-9.35185
▁brown	-9.35186
▁south	-9.35186
▁drive	-9.35203
▁front	-9.3521
▁absorbing	-9.35278
▁age	-9.35452
▁delivery	-9.35557
▁w	-9.35639
me	-9.35734
▁includ	-9.35838
▁liked	-9.35983
▁allen	-9.36105
▁8	-9.36114
▁oddly	-9.36118
budget	-9.36143
▁superb	-9.36208
▁credits	-9.36304
▁struggle	-9.36411
▁creat	-9.36433
▁break	-9.36497
natured	-9.36526
▁awkward	-9.36675
▁business	-9.36724
▁dazzling	-9.36724
▁franchise	-9.36724
▁identity	-9.36725
▁exquisite	-9.36726
▁shame	-9.36737
▁conventional	-9.36742
▁bond	-9.36814
average	-9.36836
▁badly	-9.36849
▁fan	-9.36952
▁fiction	-9.36963
▁entertain	-9.37183
▁suck	-9.37464
▁reveals	-9.37483
▁amazing	-9.37732
conscious	-9.37737
ize	-9.3777
▁general	-9.37801
line	-9.3787
▁modest	-9.38037
▁stage	-9.38203
▁absurd	-9.38251
▁commercial	-9.38272
▁2002	-9.38286
▁condition	-9.38286
▁measure	-9.38286
▁repetitive	-9.38286
▁unimaginative	-9.38286
▁false	-9.38286
▁lazy	-9.38286
▁david	-9.38288
▁development	-9.38291
▁check	-9.38292
▁college	-9.38338
▁provides	-9.38473
▁house	-9.38536
▁bold	-9.38559
▁based	-9.38581
▁hot	-9.38583
ma	-9.38617
▁editing	-9.38647
though	-9.38762
za	-9.38825
▁crush	-9.39249
▁l	-9.39291
▁9	-9.39462
▁concern	-9.39512
▁structure	-9.39563
end	-9.39676
▁bullock	-9.39874
▁complicated	-9.39874
▁obnoxious	-9.39874
▁stomach	-9.39874
▁group	-9.39874
star	-9.39882
ung	-9.39933
▁violent	-9.39944
▁maybe	-9.39945
▁speak	-9.39972
▁pair	-9.39989
▁space	-9.40016
▁belly	-9.40036
▁raw	-9.40059
▁pack	-9.40063
ping	-9.40122
▁damned	-9.40165
▁chase	-9.4024
▁attempts	-9.40376
led	-9.40729
▁thrills	-9.40733
▁tr	-9.40824
ney	-9.40835
▁tough	-9.40929
▁bright	-9.41025
▁undeniabl	-9.413
▁accept	-9.41461
▁jack	-9.41474
▁admirable	-9.41487
▁behavior	-9.41487
▁ludicrous	-9.41487
▁sight	-9.41487
▁unpleasant	-9.41487
▁wicked	-9.41487
▁cause	-9.41487
▁conflict	-9.41488
▁raise	-9.41502
▁listless	-9.41502
▁joke	-9.4155
▁fake	-9.41598
saw	-9.41745
▁fat	-9.42167
▁provide	-9.42765
▁blood	-9.4295
▁places	-9.4304
▁cartoon	-9.43107
▁murphy	-9.43126
▁strength	-9.43126
▁lousy	-9.43126
▁ponder	-9.43126
▁adam	-9.43129
▁frida	-9.4313
▁nasty	-9.43199
▁camp	-9.43305
▁pat	-9.43813
▁sound	-9.44039
▁lots	-9.4404
▁fears	-9.44047
▁fit	-9.44557
▁remain	-9.44711
▁sequence	-9.44712
▁bottom	-9.44792
▁bizarre	-9.44793
▁eloquent	-9.44793
▁excuse	-9.44793
▁glory	-9.44793
▁mainstream	-9.44793
▁poignant	-9.44793
▁splendid	-9.44793
▁vibrant	-9.44793
▁wannabe	-9.44793
▁georg	-9.44793
▁pretend	-9.44793
▁zone	-9.44793
▁east	-9.44793
▁length	-9.44793
▁philosophical	-9.44794
▁grief	-9.44797
▁proper	-9.44798
▁sentimentality	-9.44827
▁science	-9.44905
▁row	-9.44938
▁god	-9.44952
▁fatal	-9.45017
▁sides	-9.45039
▁band	-9.45056
▁humorous	-9.45099
▁inspired	-9.45134
▁totally	-9.45165
ton	-9.45311
▁insane	-9.4548
▁quickly	-9.45481
▁cleverly	-9.45561
▁happens	-9.45661
▁willing	-9.45883
▁na	-9.4602
▁damage	-9.46175
▁cent	-9.46332
▁weight	-9.46419
▁gut	-9.46472
▁faith	-9.46482
▁evocative	-9.46487
▁intricate	-9.46487
▁perspective	-9.46487
▁relative	-9.46487
▁superior	-9.46487
▁visceral	-9.46487
▁merit	-9.46488
▁linger	-9.46491
▁sitcom	-9.46498
▁hopeful	-9.46503
▁wry	-9.46509
▁cheesy	-9.46522
▁wide	-9.46572
▁happy	-9.46602
▁soon	-9.46835
ized	-9.47046
▁mixed	-9.47113
uit	-9.4717
▁non	-9.47281
▁leads	-9.47472
looking	-9.47661
ball	-9.47699
▁f	-9.47787
▁dreams	-9.47863
▁ring	-9.47975
▁charisma	-9.48201
▁creativity	-9.48212
▁machine	-9.48212
▁relentless	-9.48212
▁surface	-9.48212
▁content	-9.48212
▁food	-9.48213
▁subtlety	-9.48228
▁constant	-9.48237
▁forgotten	-9.48283
▁learn	-9.48301
▁beneath	-9.48331
▁ke	-9.48341
▁gifted	-9.4835
▁sum	-9.48377
▁effect	-9.48419
▁revealing	-9.48423
▁par	-9.48474
▁awe	-9.48587
▁holes	-9.48841
▁largely	-9.48992
▁members	-9.49122
▁persona	-9.49133
▁sequels	-9.49461
▁detail	-9.49677
▁aspects	-9.49685
▁decades	-9.49685
▁cat	-9.4982
esque	-9.49966
▁crude	-9.49966
▁flair	-9.49966
▁intended	-9.49966
▁involving	-9.49966
▁irritating	-9.49966
▁similar	-9.49966
▁channel	-9.49966
▁digital	-9.49966
▁five	-9.49967
▁blend	-9.49967
▁beginning	-9.4997
ily	-9.50029
▁season	-9.50049
▁haunting	-9.50062
▁rent	-9.50162
▁designed	-9.50172
▁pic	-9.50213
ty	-9.50377
▁creates	-9.50405
▁means	-9.50516
▁z	-9.50766
da	-9.50938
▁beat	-9.51009
hour	-9.51128
▁delightfully	-9.512
▁particular	-9.51207
▁artificial	-9.51238
▁endless	-9.51349
▁force	-9.5141
▁seek	-9.51425
ky	-9.51438
▁realize	-9.51734
▁exhilarating	-9.51752
▁intensity	-9.51752
▁retread	-9.51752
▁mention	-9.51752
▁convey	-9.51752
▁william	-9.51754
▁confusing	-9.51756
▁community	-9.51823
les	-9.51826
▁assured	-9.51852
▁accomplished	-9.51861
rence	-9.51881
▁laughter	-9.51901
▁rhythm	-9.51909
▁dare	-9.52018
ho	-9.52188
▁laughing	-9.52253
▁web	-9.52326
▁growing	-9.52329
atur	-9.52525
ese	-9.5272
▁return	-9.52758
▁talents	-9.52803
video	-9.52993
▁stop	-9.53283
▁brit	-9.53566
possibly	-9.5357
characterization	-9.5357
▁challenging	-9.5357
▁determine	-9.5357
▁frustration	-9.5357
▁holiday	-9.5357
▁kiddie	-9.5357
▁giant	-9.5357
▁fantastic	-9.53573
▁exploration	-9.53573
▁gangster	-9.53581
▁enter	-9.53583
▁combine	-9.53585
▁setting	-9.53585
▁jackson	-9.53588
▁indian	-9.53592
▁describe	-9.53615
▁teacher	-9.53642
▁slap	-9.53653
▁formulaic	-9.53672
▁consistently	-9.53746
▁stereotypes	-9.53801
▁cliched	-9.53964
▁songs	-9.54002
▁white	-9.54036
▁generally	-9.5421
▁budget	-9.54261
▁stars	-9.54335
▁quietly	-9.54535
lin	-9.54563
▁subjects	-9.54716
de	-9.54718
funny	-9.54789
▁apparent	-9.54873
▁marvelous	-9.54887
▁punch	-9.54906
▁1	-9.5499
▁count	-9.55257
▁theme	-9.55383
▁observations	-9.55393
▁vulgar	-9.55401
▁cliche	-9.55415
▁affair	-9.55422
▁elevate	-9.55422
▁endeavor	-9.55422
▁precious	-9.55422
▁soundtrack	-9.55422
▁plodding	-9.55422
▁accessible	-9.55424
▁queen	-9.55425
▁price	-9.55441
eyed	-9.5545
▁team	-9.55459
▁imax	-9.55494
▁affecting	-9.5552
▁office	-9.55582
▁farce	-9.55611
▁jam	-9.55641
▁capture	-9.55757
minded	-9.56085
▁finding	-9.56242
▁visuals	-9.56367
down	-9.5671
perfect	-9.56731
erry	-9.5678
ever	-9.56902
▁rhythms	-9.57142
▁bears	-9.57153
▁lo	-9.57245
▁crazy	-9.57309
▁unconvincing	-9.57309
▁favorite	-9.57309
▁frightening	-9.57309
▁buoyant	-9.5731
▁mor	-9.57313
▁steal	-9.57343
▁industry	-9.5738
▁television	-9.57383
▁hair	-9.5751
lu	-9.57582
▁free	-9.57604
▁bored	-9.57743
▁missing	-9.57762
▁trick	-9.57824
zo	-9.58083
▁lived	-9.58245
ingly	-9.58416
if	-9.58512
▁insult	-9.58585
▁masterful	-9.58701
▁logic	-9.58739
▁upon	-9.5877
pe	-9.58775
▁noir	-9.58832
▁main	-9.58837
mon	-9.58877
▁ya	-9.5893
▁bu	-9.58997
▁pile	-9.59206
▁wa	-9.59226
▁addition	-9.59232
▁captivating	-9.59232
▁clumsy	-9.59232
▁further	-9.59232
▁horrifying	-9.59232
▁lush	-9.59232
▁vague	-9.59232
▁vehicle	-9.59232
▁washington	-9.59232
▁rewarding	-9.59232
▁niro	-9.59238
▁display	-9.59239
▁spent	-9.59247
born	-9.5925
▁fr	-9.5925
▁pick	-9.59295
▁came	-9.59301
▁move	-9.59398
▁sell	-9.59458
▁string	-9.59486
▁flashy	-9.59489
▁forgive	-9.59549
▁relationship	-9.59689
▁cl	-9.59758
▁ja	-9.59815
▁talking	-9.59824
▁overly	-9.60078
changing	-9.60112
▁loses	-9.60231
▁explore	-9.60286
written	-9.60533
▁answers	-9.60598
indulgent	-9.60604
▁positive	-9.6064
▁sun	-9.60689
▁astonishing	-9.60775
▁notice	-9.60851
▁embrace	-9.60877
▁flash	-9.6093
▁disappointing	-9.60949
▁express	-9.6117
▁enjoyed	-9.6118
▁confident	-9.61192
▁curious	-9.61192
▁finish	-9.61192
▁gradually	-9.61192
▁increas	-9.61192
▁intoxicating	-9.61192
▁necessary	-9.61192
▁significant	-9.61192
▁succumb	-9.61192
▁heaven	-9.61193
▁wedding	-9.61193
▁report	-9.61194
▁fish	-9.61194
▁nerve	-9.61199
▁ticket	-9.61199
▁type	-9.61199
▁empathy	-9.61231
▁plotting	-9.61232
▁endure	-9.61232
▁pale	-9.61278
▁attractive	-9.61302
▁simul	-9.61328
▁body	-9.61328
▁era	-9.61356
▁blade	-9.61358
▁acts	-9.6138
ship	-9.61632
▁adult	-9.61892
▁wear	-9.62197
▁reading	-9.62202
▁deadly	-9.62532
▁older	-9.62552
school	-9.62614
▁lines	-9.62752
▁pa	-9.62805
▁red	-9.62844
▁achieves	-9.62991
▁slo	-9.63105
▁enthusiasm	-9.63192
▁graphic	-9.63192
▁incoherent	-9.63192
▁slice	-9.63192
▁unpredictable	-9.63192
▁uplifting	-9.63192
▁mayhem	-9.63192
▁heartbreaking	-9.63193
▁delicious	-9.63193
▁unfocused	-9.63197
▁crap	-9.63207
▁levels	-9.63228
▁crass	-9.63232
▁passionate	-9.63236
▁eat	-9.63258
▁grown	-9.63267
▁wholly	-9.63291
▁wife	-9.63304
▁third	-9.63305
▁drawn	-9.63326
▁child	-9.63414
▁tu	-9.63424
▁undeniable	-9.63424
▁delights	-9.63441
▁moviegoers	-9.63592
▁emotion	-9.63686
een	-9.63791
▁question	-9.63797
▁theaters	-9.63931
▁bla	-9.63996
▁smarter	-9.64045
▁land	-9.64158
▁expected	-9.64167
▁lie	-9.6432
side	-9.64328
▁games	-9.64383
▁represents	-9.64395
▁spin	-9.64589
1	-9.64626
▁traditional	-9.64648
▁kill	-9.64684
▁brothers	-9.64835
▁prim	-9.64866
▁sp	-9.64975
said	-9.65001
▁da	-9.65166
▁service	-9.65221
▁transform	-9.65225
▁resist	-9.65231
▁cloying	-9.65233
▁example	-9.65233
▁exploitative	-9.65233
▁outstanding	-9.65233
▁poem	-9.65233
▁jolt	-9.65233
▁christmas	-9.65235
▁outrageous	-9.65237
▁slack	-9.65237
▁offbeat	-9.65253
▁broad	-9.65254
▁melodramatic	-9.65265
▁joyous	-9.65282
▁preachy	-9.65306
▁am	-9.6531
▁however	-9.6532
▁king	-9.65322
mber	-9.65427
▁cover	-9.65432
▁supporting	-9.65465
▁terms	-9.65498
▁demonstrate	-9.66104
▁talk	-9.66486
▁sports	-9.66651
▁th	-9.6682
▁catch	-9.66904
▁points	-9.66923
fire	-9.67067
▁comfort	-9.67291
▁choppy	-9.67317
▁grandeur	-9.67317
▁somehow	-9.67317
▁sympathy	-9.67317
▁treasure	-9.67317
▁grab	-9.67317
▁mature	-9.67317
▁sensual	-9.67325
▁lyrical	-9.67327
▁sour	-9.67346
▁portrayal	-9.67377
▁bitter	-9.67439
▁park	-9.67476
▁cost	-9.67508
▁earth	-9.6763
▁list	-9.67794
▁pleasing	-9.67852
▁musical	-9.67878
▁sw	-9.68003
▁ru	-9.68023
▁sink	-9.68079
▁ski	-9.68381
▁friend	-9.68522
work	-9.68811
drama	-9.68858
crafted	-9.68865
king	-9.69024
ck	-9.69164
▁courage	-9.69416
▁ambition	-9.69444
▁atmosphere	-9.69444
▁fierce	-9.69444
▁landscape	-9.69444
▁nowhere	-9.69444
▁remote	-9.69444
▁soderbergh	-9.69444
▁thousand	-9.69444
▁trademark	-9.69444
▁vapid	-9.69444
▁genial	-9.69444
▁revenge	-9.69444
▁seagal	-9.69444
▁foul	-9.69446
▁revelatory	-9.69447
▁generation	-9.69449
▁personality	-9.69499
▁niche	-9.69502
▁male	-9.69579
▁lady	-9.6958
▁artistic	-9.69638
▁edited	-9.69766
▁factor	-9.69887
un	-9.70017
▁standards	-9.70028
▁cho	-9.70147
▁relie	-9.70151
▁marks	-9.70152
▁charmer	-9.70163
▁timely	-9.70244
▁hop	-9.70437
ale	-9.70541
em	-9.70601
6	-9.71022
wood	-9.71043
▁smug	-9.71059
▁pitch	-9.71284
▁sketch	-9.71361
▁mar	-9.71435
▁post	-9.71472
▁banal	-9.71599
▁public	-9.71607
$	-9.71618
▁abandon	-9.71618
▁encounter	-9.71618
▁inherent	-9.71618
▁resonant	-9.71618
▁simplistic	-9.71618
▁sneak	-9.71618
▁theatrical	-9.71618
▁unlikable	-9.71618
▁bigger	-9.71619
▁teenagers	-9.7162
▁collection	-9.71623
▁unoriginal	-9.7163
scale	-9.71636
▁murky	-9.7165
▁spring	-9.71661
▁dirty	-9.71702
▁vampire	-9.71715
▁market	-9.71768
▁larger	-9.71769
▁hands	-9.71785
▁grow	-9.71817
▁killer	-9.71831
▁rendered	-9.71886
▁missed	-9.7196
▁bone	-9.71981
▁realized	-9.72371
▁sor	-9.72481
▁fear	-9.7258
▁villain	-9.72604
▁vividly	-9.72619
▁yes	-9.72622
▁shooting	-9.72642
he	-9.72688
▁shake	-9.72845
▁draw	-9.73149
▁fair	-9.73176
q	-9.73185
▁fate	-9.73209
8	-9.73227
▁wilde	-9.73246
▁stu	-9.73505
▁engage	-9.73539
▁discover	-9.73582
▁guns	-9.7365
▁bang	-9.73658
▁sleep	-9.73672
art	-9.73703
tuck	-9.73709
▁thrill	-9.73827
▁bittersweet	-9.7384
▁ordinary	-9.7384
▁poignancy	-9.7384
▁snow	-9.7384
▁somewhere	-9.7384
▁arrive	-9.73841
▁bunch	-9.73841
▁lift	-9.73841
▁sugar	-9.73841
▁charismatic	-9.73854
▁daring	-9.73863
▁gem	-9.73866
▁absurdity	-9.73868
▁witless	-9.73937
▁paul	-9.73962
▁sober	-9.73984
▁creation	-9.74032
▁amused	-9.74062
▁freshness	-9.74099
▁buy	-9.7415
▁constructed	-9.744
▁boys	-9.74603
▁cha	-9.74886
▁impression	-9.749
▁result	-9.74918
▁amounts	-9.74922
▁damn	-9.75048
▁son	-9.75149
▁record	-9.75469
▁profound	-9.75558
▁wind	-9.75641
▁construct	-9.75698
tantly	-9.7592
cur	-9.75985
ac	-9.76012
▁sentiment	-9.76021
▁tears	-9.76027
▁cult	-9.76108
witted	-9.76113
▁despair	-9.76113
▁proceedings	-9.76113
▁territory	-9.76113
▁mixture	-9.76113
taneous	-9.76113
▁combination	-9.76114
▁korea	-9.76116
▁italian	-9.76117
▁angst	-9.76121
▁essen	-9.76122
▁footage	-9.76125
▁mo	-9.7613
▁shape	-9.7614
▁fa	-9.76172
▁attract	-9.76198
▁involved	-9.7621
rought	-9.7621
▁spot	-9.76281
▁touches	-9.76315
▁dvd	-9.76324
▁control	-9.76335
▁jar	-9.764
7	-9.76421
▁dish	-9.76665
▁burn	-9.76701
arious	-9.7674
▁richer	-9.76793
▁predecessor	-9.77268
▁secret	-9.77293
▁leav	-9.77306
▁unfolds	-9.77317
▁folks	-9.77484
▁played	-9.77723
▁note	-9.7787
▁breathtaking	-9.77898
▁exceptional	-9.77906
ught	-9.7794
▁biting	-9.77953
▁ground	-9.78015
▁rush	-9.78022
▁trite	-9.784
▁compassion	-9.78424
▁astounding	-9.78439
▁dignity	-9.78439
▁immediate	-9.78439
▁splash	-9.78439
▁teeth	-9.78439
▁tongue	-9.78439
▁spooky	-9.7844
▁commentary	-9.78443
▁meaningful	-9.78445
▁regard	-9.78445
▁settle	-9.78478
▁race	-9.78484
▁bo	-9.78499
▁path	-9.78513
▁knowledge	-9.78534
▁whatever	-9.78608
▁suspect	-9.78708
▁faster	-9.78761
▁3	-9.78847
▁mill	-9.78862
▁kissing	-9.78885
▁deeper	-9.78902
▁nation	-9.78947
▁shock	-9.79107
▁wave	-9.79238
▁beach	-9.79523
▁ice	-9.79598
▁results	-9.79677
▁animal	-9.79704
▁protagonist	-9.79718
▁rank	-9.79748
hop	-9.79868
▁hits	-9.79955
▁aim	-9.80053
▁week	-9.80123
▁build	-9.80174
▁scream	-9.80181
field	-9.80231
▁desperate	-9.8027
▁spectacular	-9.80289
▁topic	-9.80373
▁appreciate	-9.80503
▁honestly	-9.80643
▁adventurous	-9.8082
▁exotic	-9.8082
▁fanciful	-9.8082
▁magnificent	-9.8082
▁nightmare	-9.8082
▁perverse	-9.8082
▁unforced	-9.8082
▁stirring	-9.8082
▁moore	-9.8082
▁urge	-9.8082
▁timing	-9.80821
▁ryan	-9.80821
▁visit	-9.80821
▁wander	-9.80824
▁angel	-9.80826
▁depiction	-9.80828
▁rough	-9.80831
▁wal	-9.80838
▁capable	-9.80841
▁soulful	-9.80841
▁search	-9.80843
▁soulless	-9.80868
▁immensely	-9.80879
entist	-9.80897
ated	-9.809
▁expression	-9.80924
▁jim	-9.81149
▁sweetness	-9.81198
▁pleasures	-9.81201
é	-9.81245
▁area	-9.81258
▁lee	-9.81278
▁endlessly	-9.81558
than	-9.81844
ern	-9.81925
▁paced	-9.81943
▁ho	-9.82009
▁bite	-9.82097
class	-9.8217
▁grat	-9.82175
▁rad	-9.82227
▁loved	-9.82246
▁raci	-9.82329
ance	-9.82516
lie	-9.82547
▁alien	-9.82866
▁desire	-9.82945
▁stick	-9.83016
▁sadly	-9.83052
ven	-9.83107
▁inspiration	-9.83174
▁blow	-9.83197
▁junk	-9.83234
▁vital	-9.8325
satisfied	-9.83259
▁patience	-9.83259
▁polished	-9.83259
▁harrowing	-9.83259
▁spider	-9.83259
▁bag	-9.83259
▁committed	-9.83259
▁br	-9.83261
daughter	-9.83263
▁cutting	-9.83267
▁spend	-9.83269
▁spoof	-9.8327
▁anti	-9.83271
▁lend	-9.83273
▁box	-9.83275
▁basic	-9.83278
▁shapeless	-9.83281
▁losing	-9.83286
▁literary	-9.83288
▁comfortable	-9.83288
▁alternate	-9.83294
enni	-9.83299
assive	-9.83313
▁laughable	-9.8336
▁wow	-9.83393
▁overwhelming	-9.83394
▁dragon	-9.83411
▁magical	-9.83475
▁4	-9.83545
▁intermi	-9.83595
over	-9.83863
▁ta	-9.83865
ak	-9.83959
ul	-9.84011
ya	-9.84145
▁demands	-9.84201
▁delivered	-9.84217
▁du	-9.84297
tle	-9.84591
ious	-9.84858
▁enthusiastic	-9.84936
▁winner	-9.84944
notch	-9.84961
▁wears	-9.85126
▁sweetly	-9.85167
▁lesson	-9.85426
▁understanding	-9.85462
gged	-9.85468
▁scare	-9.85481
▁tradition	-9.85505
▁trash	-9.85516
▁details	-9.85596
cute	-9.85606
▁needed	-9.85679
▁lump	-9.85724
▁commun	-9.85739
▁african	-9.85758
▁alternative	-9.85759
▁appalling	-9.85759
▁credible	-9.85759
▁dickens	-9.85759
▁hallmark	-9.85759
▁imitation	-9.85759
▁resourceful	-9.85759
▁squander	-9.85759
▁sympathetic	-9.85759
▁boast	-9.85759
▁monty	-9.85759
▁nomination	-9.85759
▁scorsese	-9.85759
▁martin	-9.85759
▁common	-9.85764
▁uncompromising	-9.85768
▁homage	-9.85769
▁faithful	-9.85773
▁popular	-9.85777
▁connection	-9.85778
▁startling	-9.85778
▁relief	-9.85779
▁broom	-9.85819
▁unfortunately	-9.85863
▁movements	-9.8591
▁sadness	-9.85965
▁tap	-9.85967
tiny	-9.85981
▁convinced	-9.86007
jones	-9.86025
▁lip	-9.86037
▁sketchy	-9.86062
ugh	-9.86125
▁early	-9.86286
upper	-9.86426
wi	-9.86961
▁happening	-9.87091
ible	-9.87269
▁values	-9.87273
grade	-9.87293
▁friends	-9.87344
▁sn	-9.87412
▁evening	-9.87422
▁hole	-9.87557
▁longer	-9.87665
▁scratch	-9.87677
▁artists	-9.87726
▁dust	-9.87849
▁flow	-9.88012
▁disguise	-9.8805
▁hu	-9.88266
filled	-9.88279
wrenching	-9.88323
▁celebration	-9.88323
▁degree	-9.88323
▁flimsy	-9.88323
▁happiness	-9.88323
▁police	-9.88323
▁presence	-9.88323
▁strict	-9.88323
▁window	-9.88323
▁husband	-9.88323
▁broken	-9.88323
▁slick	-9.88326
▁cell	-9.88326
▁gritty	-9.88326
▁revelation	-9.88331
▁lurid	-9.88333
▁sparkling	-9.88343
▁uninspired	-9.88352
▁intellectual	-9.88406
▁buck	-9.88445
▁innocence	-9.88452
▁exploitation	-9.88472
▁knowing	-9.88496
▁belong	-9.88574
▁minds	-9.88598
▁flower	-9.88659
▁candy	-9.88717
ph	-9.88725
▁finale	-9.88741
alan	-9.88785
▁90-	-9.88888
▁wall	-9.88957
▁national	-9.88968
ane	-9.89027
▁apparently	-9.89091
▁skip	-9.89091
▁witch	-9.89099
▁key	-9.89214
ups	-9.89417
▁mel	-9.89421
▁honesty	-9.89484
▁ear	-9.89492
▁burns	-9.89546
▁others	-9.89556
▁fir	-9.89778
▁grows	-9.89816
▁technical	-9.90403
▁guess	-9.90496
ia	-9.90507
▁odds	-9.90564
lond	-9.90565
▁distance	-9.90638
▁inevitabl	-9.90686
▁insights	-9.90799
cu	-9.9082
▁feat	-9.90948
▁distinct	-9.90954
▁***	-9.90954
▁aplomb	-9.90954
▁barbershop	-9.90954
▁cynical	-9.90954
▁english	-9.90954
▁revolution	-9.90954
▁tremendous	-9.90954
▁warrior	-9.90954
▁fluid	-9.90954
▁toilet	-9.90954
▁biggest	-9.90954
eudo	-9.90955
▁maudlin	-9.90957
▁hastily	-9.90958
▁morning	-9.90962
▁creature	-9.90963
▁belt	-9.90968
▁imagery	-9.9097
▁escapism	-9.90973
▁drop	-9.90982
3	-9.91
▁scenery	-9.91008
▁corny	-9.91021
▁blast	-9.91024
▁extend	-9.91035
▁recycled	-9.91042
▁leaden	-9.91073
▁earnestness	-9.91083
▁shocking	-9.9111
▁tortured	-9.91158
▁miss	-9.91251
med	-9.91513
▁structured	-9.91529
▁developed	-9.91589
▁guessing	-9.91596
▁due	-9.9167
aged	-9.91672
▁luck	-9.91752
ning	-9.91876
▁spirits	-9.9195
▁cla	-9.9196
▁er	-9.92341
vely	-9.92459
▁suffering	-9.92787
▁father	-9.92874
ure	-9.92909
gi	-9.92911
▁dra	-9.92936
room	-9.93001
writer	-9.9302
power	-9.9306
bad	-9.93083
lor	-9.93221
▁develop	-9.93232
▁drown	-9.93235
▁gar	-9.93284
▁travel	-9.93513
▁doze	-9.93569
▁potent	-9.93648
▁admire	-9.93654
▁appropriate	-9.93657
▁benigni	-9.93657
▁cohesive	-9.93657
▁convenient	-9.93657
▁ingenious	-9.93657
▁irresistible	-9.93657
▁juvenile	-9.93657
▁mysterious	-9.93657
▁safe	-9.93657
▁sudden	-9.93657
▁terribly	-9.93657
▁terrifying	-9.93657
▁testament	-9.93657
▁unfaithful	-9.93657
▁burie	-9.93657
▁nevertheless	-9.93657
▁references	-9.93657
▁expressive	-9.93657
▁intentions	-9.93657
▁spell	-9.93657
▁variety	-9.93657
▁sublime	-9.93657
▁glass	-9.93658
▁cheer	-9.93658
▁verve	-9.93658
▁screw	-9.9366
frai	-9.93661
▁dreadful	-9.93661
▁dangerous	-9.93666
▁rapid	-9.93669
▁disappointment	-9.9367
▁sensational	-9.93672
▁tight	-9.93695
▁overwrought	-9.93695
▁hugh	-9.93714
▁chilly	-9.93721
▁swim	-9.93723
▁lane	-9.93729
▁artful	-9.93737
yam	-9.93775
▁charmless	-9.93786
▁executed	-9.93809
▁mouth	-9.93843
▁continue	-9.93859
▁edit	-9.93874
▁&	-9.93906
▁surrounding	-9.93913
▁store	-9.93915
▁fairy	-9.93984
▁require	-9.94112
▁lifeless	-9.94119
▁staged	-9.94213
▁earn	-9.94281
▁desperately	-9.94285
▁breathtakingly	-9.94301
▁begin	-9.94355
▁wars	-9.9454
giving	-9.94659
▁signs	-9.94708
▁presented	-9.94732
sane	-9.94767
▁total	-9.95001
ward	-9.95124
list	-9.95602
▁salt	-9.95731
▁heal	-9.9574
spirited	-9.95836
national	-9.95852
half	-9.95858
▁tricks	-9.95906
▁lively	-9.95909
ities	-9.95952
packed	-9.96064
▁guilt	-9.96174
▁ab	-9.96297
▁crack	-9.96326
▁decepti	-9.9637
▁spite	-9.96434
▁adolescent	-9.96435
▁clumsily	-9.96435
▁comparison	-9.96435
▁difference	-9.96435
▁dubbed	-9.96435
▁dynamic	-9.96435
▁exceedingly	-9.96435
▁ghost	-9.96435
▁integrity	-9.96435
▁psychology	-9.96435
▁silliness	-9.96435
▁splendor	-9.96435
▁surrender	-9.96435
▁quirks	-9.96435
▁newcomer	-9.96435
▁roger	-9.96435
▁trailer	-9.96435
▁raunch	-9.96441
▁spike	-9.96442
▁reduce	-9.96448
ified	-9.96451
▁195	-9.96455
▁ode	-9.96455
▁jaw	-9.96472
ridden	-9.96509
▁dozen	-9.96567
▁shelf	-9.96608
▁meat	-9.96609
▁below	-9.96618
▁warning	-9.96679
▁spirited	-9.96716
▁moviemaking	-9.96731
paid	-9.96775
▁sake	-9.96879
▁song	-9.96911
▁limited	-9.96965
▁heard	-9.97072
▁won	-9.97094
com	-9.9718
▁astonishingly	-9.97224
▁reasonabl	-9.97448
kind	-9.97583
▁center	-9.98113
tal	-9.98186
▁sla	-9.98492
▁professional	-9.98672
2	-9.98692
4	-9.98693
▁chris	-9.98712
number	-9.98713
▁loose	-9.98739
▁equal	-9.98746
▁occasional	-9.98753
wear	-9.98753
▁extra	-9.98884
▁nuance	-9.9898
▁rises	-9.99156
▁flavor	-9.99261
▁marvel	-9.99265
▁blank	-9.99291
caricature	-9.99292
oriented	-9.99292
▁attitude	-9.99292
▁chaotic	-9.99292
▁embarrassment	-9.99292
▁environment	-9.99292
▁feces	-9.99292
▁inviting	-9.99292
▁screenwriting	-9.99292
▁straightforward	-9.99292
▁coherent	-9.99292
▁honor	-9.99292
▁hopkins	-9.99292
▁spare	-9.99292
▁proud	-9.99292
▁tasty	-9.99292
▁rising	-9.99293
cite	-9.99294
▁wallace	-9.99294
▁distasteful	-9.99294
▁diversion	-9.99295
▁gently	-9.99296
▁12	-9.993
▁private	-9.99301
▁phony	-9.99312
▁halfway	-9.99322
▁plotted	-9.9933
▁fights	-9.99393
▁sweeping	-9.99402
▁labored	-9.99504
▁dullest	-9.9954
▁demanding	-9.99588
▁locations	-9.99659
▁shamelessly	-9.99685
▁bill	-9.99692
▁produced	-9.99711
▁smok	-9.99718
▁ran	-9.99832
ept	-9.99846
▁pie	-10.0025
▁touched	-10.0045
▁worked	-10.0051
▁connect	-10.0052
▁roles	-10.008
▁directing	-10.008
▁directors	-10.0086
▁breath	-10.0092
▁smartly	-10.0103
ami	-10.0153
style	-10.0157
dead	-10.0166
▁aimless	-10.017
▁gang	-10.0179
red	-10.0181
▁improve	-10.0195
▁event	-10.0205
▁forces	-10.0214
▁square	-10.0218
▁americans	-10.0219
▁account	-10.0223
▁benefit	-10.0223
▁childhood	-10.0223
▁equivalent	-10.0223
▁explosion	-10.0223
▁flesh	-10.0223
▁incessant	-10.0223
▁polanski	-10.0223
▁saccharine	-10.0223
▁smack	-10.0223
▁society	-10.0223
▁soggy	-10.0223
▁shrewd	-10.0223
▁praise	-10.0223
▁regret	-10.0223
▁speed	-10.0223
alyze	-10.0224
▁swoo	-10.0224
▁seven	-10.0224
▁indeed	-10.0224
▁limp	-10.0224
▁auto	-10.0225
▁christian	-10.0225
▁dying	-10.0226
▁order	-10.0229
▁motivated	-10.0229
▁useless	-10.023
▁cram	-10.0232
▁course	-10.0233
▁chuckle	-10.0235
▁enthralling	-10.0236
▁openness	-10.0238
▁send	-10.0238
▁characteristic	-10.0238
▁test	-10.0244
▁page	-10.0246
▁farts	-10.0246
ternal	-10.025
▁push	-10.0254
▁disappointed	-10.0254
▁suited	-10.0256
chingly	-10.0256
▁clos	-10.0264
pressed	-10.0269
gent	-10.0291
▁breaks	-10.0296
▁discovery	-10.03
▁teenage	-10.0301
▁seconds	-10.0302
▁screaming	-10.0303
▁drawing	-10.0309
ory	-10.031
▁ju	-10.0316
back	-10.0318
▁thumbs	-10.0326
consciously	-10.0328
station	-10.0349
▁lower	-10.0353
sible	-10.0361
▁hearts	-10.0361
▁weirdly	-10.0373
nted	-10.0386
▁include	-10.0397
▁uncomm	-10.0405
key	-10.0434
▁sa	-10.0439
▁inspire	-10.045
▁kick	-10.0467
▁peculiar	-10.047
▁handsome	-10.0471
▁term	-10.0487
▁parent	-10.0492
oli	-10.0508
▁drugs	-10.0512
▁hype	-10.0519
70	-10.0526
▁academ	-10.0526
▁ambiguous	-10.0526
▁artifice	-10.0526
▁background	-10.0526
▁capacity	-10.0526
▁cheese	-10.0526
▁chinese	-10.0526
▁dawn	-10.0526
▁expense	-10.0526
▁generous	-10.0526
▁incompetent	-10.0526
▁innovation	-10.0526
▁lackluster	-10.0526
▁martha	-10.0526
▁miracle	-10.0526
▁nonsensical	-10.0526
▁perhaps	-10.0526
▁relevant	-10.0526
▁stroke	-10.0526
▁substantial	-10.0526
▁tragedies	-10.0526
▁unflinching	-10.0526
▁collective	-10.0526
▁whimsy	-10.0526
▁behold	-10.0526
▁quest	-10.0527
▁rewards	-10.0527
▁held	-10.0527
▁compar	-10.0527
cheek	-10.0527
▁finger	-10.0527
▁iranian	-10.0527
▁idiotic	-10.0527
tently	-10.0527
▁personalities	-10.0528
▁vitality	-10.0529
▁slip	-10.0529
▁uncanny	-10.053
▁tick	-10.0534
▁mental	-10.0535
▁inspirational	-10.0538
▁language	-10.054
▁decided	-10.054
▁table	-10.0546
▁admit	-10.0548
▁choices	-10.0556
▁producer	-10.0558
▁gloriously	-10.0563
▁richly	-10.0563
▁engaged	-10.0569
▁marginal	-10.057
▁severe	-10.0588
▁grade	-10.0602
▁fra	-10.0607
▁onscreen	-10.0612
▁features	-10.0613
▁cap	-10.0614
▁started	-10.0625
ino	-10.0628
▁inane	-10.0644
lan	-10.0653
ches	-10.0662
▁delicately	-10.0674
▁players	-10.0682
▁messages	-10.0684
▁politically	-10.07
▁u	-10.0704
rew	-10.0714
trip	-10.073
▁ideal	-10.0733
affected	-10.0738
▁transcends	-10.0756
▁succeed	-10.0766
▁inner	-10.077
▁arc	-10.0784
fun	-10.0784
too	-10.08
gling	-10.0801
eo	-10.0802
▁portray	-10.0805
▁stunt	-10.0807
▁convince	-10.0808
▁choice	-10.0808
▁element	-10.0811
▁image	-10.082
▁rehash	-10.0829
idden	-10.083
▁thematic	-10.0836
▁bracing	-10.0839
▁deliberate	-10.0839
▁fantasies	-10.0839
▁fuzzy	-10.0839
▁garbage	-10.0839
▁insipid	-10.0839
▁intimacy	-10.0839
▁misery	-10.0839
▁resonance	-10.0839
▁scenario	-10.0839
▁slapdash	-10.0839
▁sluggish	-10.0839
▁sumptuous	-10.0839
▁built	-10.0839
▁trappings	-10.0839
▁sarandon	-10.0839
erbal	-10.0839
▁marriage	-10.0839
▁destination	-10.0839
▁subtly	-10.084
▁interview	-10.084
▁knew	-10.084
▁possibilities	-10.084
▁myself	-10.0841
▁locales	-10.0841
▁rude	-10.0842
▁kline	-10.0842
▁gasp	-10.0844
mart	-10.0847
ging	-10.0847
▁complexity	-10.0848
▁makers	-10.0848
▁corner	-10.0851
▁barrel	-10.0851
▁technology	-10.0852
▁rely	-10.0854
▁thrown	-10.086
▁photography	-10.0861
▁choose	-10.0866
▁actresses	-10.0867
ford	-10.087
▁mere	-10.0886
▁rushed	-10.0895
▁redeem	-10.0916
▁sacrifice	-10.0925
▁mainly	-10.093
▁devices	-10.0949
▁woo	-10.0991
▁pe	-10.1012
▁excess	-10.1029
▁layers	-10.1033
▁hear	-10.1058
gui	-10.1059
▁harv	-10.1073
light	-10.1082
▁scor	-10.1091
40	-10.1093
world	-10.1104
▁focus	-10.1119
putting	-10.1121
▁slowly	-10.1131
ler	-10.1131
▁imp	-10.114
▁movement	-10.1142
▁expectation	-10.1143
▁bound	-10.1147
ozen	-10.1157
cisive	-10.1157
▁existential	-10.116
▁text	-10.1161
▁dim	-10.1161
▁aesthetic	-10.1161
▁irony	-10.1161
▁borrow	-10.1161
▁breakthrough	-10.1161
▁breezy	-10.1161
▁celluloid	-10.1161
▁chabrol	-10.1161
▁complications	-10.1161
▁context	-10.1161
▁contribution	-10.1161
▁current	-10.1161
▁dysfunctional	-10.1161
▁elaborate	-10.1161
▁embarrassed	-10.1161
▁encouraging	-10.1161
▁familial	-10.1161
▁holocaust	-10.1161
▁improbable	-10.1161
▁lopez	-10.1161
▁mechanic	-10.1161
▁pleasurable	-10.1161
▁problematic	-10.1161
▁stereotypical	-10.1161
▁distinctive	-10.1161
▁edgy	-10.1161
▁prevent	-10.1161
▁sincerity	-10.1161
▁wound	-10.1161
▁court	-10.1161
▁gear	-10.1161
▁martial	-10.1161
▁subculture	-10.1162
▁contain	-10.1162
wreck	-10.1162
▁famous	-10.1162
▁buffs	-10.1162
▁hack	-10.1162
▁likable	-10.1162
▁daily	-10.1163
▁unbelievable	-10.1164
▁refusal	-10.1164
▁graceless	-10.1168
▁supremely	-10.1168
▁adrenalin	-10.1168
▁overlong	-10.1168
▁singing	-10.1169
▁bridge	-10.1175
▁weirdness	-10.1176
calm	-10.1178
▁dramatically	-10.1183
▁parker	-10.1185
▁costume	-10.1186
▁scott	-10.1188
▁gall	-10.1188
hitting	-10.119
▁dress	-10.119
▁tay	-10.1194
▁finely	-10.1195
▁provid	-10.1196
going	-10.1196
▁disgusting	-10.1196
▁distinguished	-10.1201
▁cleverness	-10.1204
hat	-10.1218
▁surreal	-10.1251
▁shaped	-10.1253
▁celebrates	-10.1263
▁adventures	-10.1301
▁grating	-10.131
▁ranks	-10.1312
faced	-10.1315
▁com	-10.1315
▁tri	-10.135
▁charge	-10.1351
mas	-10.1352
▁fer	-10.1395
▁passe	-10.1395
▁scar	-10.1398
play	-10.1429
▁dom	-10.143
▁kiss	-10.1438
▁actual	-10.144
▁neat	-10.1441
qui	-10.1442
way	-10.1447
free	-10.1447
▁handle	-10.1449
▁dogs	-10.145
▁returns	-10.1462
▁charms	-10.1465
▁within	-10.1466
▁pit	-10.1473
99	-10.1475
▁pow	-10.1478
▁experiment	-10.1485
▁mistake	-10.1486
▁whimsical	-10.1493
▁eager	-10.1493
▁revel	-10.1494
▁desperation	-10.1495
▁exposition	-10.1495
▁giddy	-10.1495
▁gyllenhaal	-10.1495
▁hokum	-10.1495
▁hybrid	-10.1495
▁incoherence	-10.1495
▁inconsequential	-10.1495
▁infidelity	-10.1495
▁invention	-10.1495
▁junior	-10.1495
▁obsession	-10.1495
▁redundant	-10.1495
▁reminiscent	-10.1495
▁resolutely	-10.1495
▁responsible	-10.1495
▁savvy	-10.1495
▁trifle	-10.1495
▁evolve	-10.1495
▁kong	-10.1495
▁zero	-10.1495
▁german	-10.1495
▁harsh	-10.1495
▁planet	-10.1495
▁trees	-10.1495
▁bump	-10.1495
▁diverting	-10.1495
▁pathology	-10.1495
▁romp	-10.1495
fication	-10.1495
▁harry	-10.1496
▁beast	-10.1496
▁altogether	-10.1496
ourne	-10.1497
▁satirical	-10.1497
▁owe	-10.1498
▁brand	-10.1499
▁mile	-10.15
▁listen	-10.15
▁exit	-10.15
▁aggressive	-10.1501
▁yearning	-10.1502
▁respectable	-10.1502
▁lovers	-10.1503
▁preposterous	-10.1504
▁stone	-10.1505
▁replaced	-10.1505
▁shakespeare	-10.1506
▁dancing	-10.1512
▁leon	-10.1513
▁fisher	-10.152
▁ignored	-10.152
▁portrays	-10.1522
▁century	-10.1522
marine	-10.1528
▁existed	-10.1533
▁talky	-10.1538
▁humorless	-10.1541
▁failing	-10.1544
▁resemble	-10.1548
▁enormously	-10.1548
▁insulting	-10.1551
▁timeless	-10.1559
▁technically	-10.1565
▁kicking	-10.1566
▁phone	-10.1585
▁chills	-10.16
▁instincts	-10.1612
only	-10.1613
▁elegantly	-10.1618
charged	-10.1641
▁ironic	-10.1642
anta	-10.1643
▁gap	-10.1651
▁weeks	-10.1651
went	-10.1656
▁secrets	-10.1661
tive	-10.1664
▁aside	-10.1675
cer	-10.1681
▁surf	-10.1701
▁chas	-10.1713
▁brilliantly	-10.1746
edge	-10.1754
▁accents	-10.1761
bound	-10.178
house	-10.1782
▁enormous	-10.1784
▁graceful	-10.1787
wer	-10.1796
▁distinguish	-10.1798
▁roman	-10.1821
▁surely	-10.1831
▁random	-10.1835
▁clueless	-10.1837
▁trans	-10.1839
▁blockbuster	-10.1839
▁atmospheric	-10.184
▁competent	-10.184
▁concentrat	-10.184
▁criminal	-10.184
▁cruci	-10.184
▁department	-10.184
▁examine	-10.184
▁existence	-10.184
▁fabulous	-10.184
▁hide	-10.184
▁impeccable	-10.184
▁inject	-10.184
▁rambling	-10.184
▁scattered	-10.184
▁smash	-10.184
▁triangle	-10.184
▁unfulfilling	-10.184
▁intolerable	-10.184
▁predictably	-10.184
▁jump	-10.184
▁ballot	-10.184
▁mike	-10.184
▁enduring	-10.184
▁chord	-10.184
donna	-10.184
▁shining	-10.184
▁hollow	-10.184
▁insistent	-10.184
▁trace	-10.184
▁noise	-10.184
▁gender	-10.1841
▁15	-10.1841
atory	-10.1843
▁downbeat	-10.1843
▁cartoonish	-10.1844
▁plan	-10.1844
▁observation	-10.1845
▁hunter	-10.1847
▁holm	-10.1851
▁confused	-10.1851
▁fuss	-10.1852
▁ghetto	-10.1857
▁dismissed	-10.1861
▁mira	-10.1864
▁reel	-10.1867
▁shift	-10.187
▁ego	-10.1871
▁blown	-10.1876
▁finest	-10.1877
rade	-10.1882
▁pity	-10.1886
▁bloody	-10.1896
form	-10.1926
lock	-10.1937
▁copy	-10.1939
▁/	-10.1965
turning	-10.1979
▁blin	-10.1989
▁notion	-10.1997
▁shocks	-10.1998
well	-10.2001
▁fu	-10.2015
▁lar	-10.2032
▁filmed	-10.2034
▁em	-10.204
ble	-10.205
▁vari	-10.2061
our	-10.2098
▁dr	-10.2111
▁stoop	-10.2132
length	-10.2139
paced	-10.2139
familiar	-10.2139
▁accurate	-10.2141
two	-10.2141
▁easi	-10.2142
▁obviously	-10.2149
▁design	-10.2155
▁meaning	-10.216
fy	-10.2165
▁recognize	-10.2165
▁powers	-10.2172
▁freaks	-10.2175
▁exist	-10.2177
▁lust	-10.2182
▁smooth	-10.2182
▁ten	-10.2183
▁ben	-10.2184
▁flo	-10.2192
▁assassin	-10.2196
▁brooding	-10.2197
▁cobbled	-10.2197
▁demented	-10.2197
▁dishonest	-10.2197
▁fulfill	-10.2197
▁hook	-10.2197
▁hundred	-10.2197
▁implausible	-10.2197
▁necessarily	-10.2197
▁obscure	-10.2197
▁perceptive	-10.2197
▁pianist	-10.2197
▁satisfies	-10.2197
▁sorvino	-10.2197
▁stilted	-10.2197
▁witherspoon	-10.2197
▁rollicking	-10.2197
cy	-10.2197
▁justify	-10.2197
▁crawl	-10.2197
▁enterprise	-10.2197
eddie	-10.2197
▁defen	-10.2197
▁discern	-10.2197
▁legal	-10.2197
▁chops	-10.2197
▁abuse	-10.2197
▁saving	-10.2197
▁phenomenal	-10.2197
▁trapped	-10.2198
▁vanity	-10.2198
▁88	-10.2198
▁heroine	-10.2198
▁mythic	-10.2198
actic	-10.2198
▁million	-10.22
▁presentation	-10.22
ilty	-10.22
▁denial	-10.22
▁handful	-10.2201
▁uh	-10.2201
▁clue	-10.2201
▁evan	-10.2202
▁parable	-10.2202
▁rote	-10.2202
▁tart	-10.2203
▁venture	-10.2204
▁divine	-10.2205
▁stretches	-10.2206
▁eccentric	-10.2206
▁gold	-10.2208
▁oh	-10.2209
▁trust	-10.2211
▁pretension	-10.2212
▁drug	-10.2214
▁rise	-10.2214
▁noble	-10.2214
▁freak	-10.2218
▁erotic	-10.2218
az	-10.2219
▁muddled	-10.2219
▁qu	-10.222
▁tend	-10.2221
▁dud	-10.2223
▁independent	-10.2234
▁nuanced	-10.2236
cue	-10.2237
▁tried	-10.2239
▁exploiting	-10.2241
▁unabashedly	-10.2242
▁sly	-10.225
▁rating	-10.225
j	-10.2252
▁moved	-10.2255
▁gangs	-10.2257
did	-10.2263
▁lau	-10.2265
ustin	-10.2274
estic	-10.2283
ooling	-10.2288
rash	-10.2296
▁masterfully	-10.2301
▁sade	-10.2312
▁critics	-10.2324
▁drags	-10.2325
▁tool	-10.2331
▁soar	-10.2331
▁ka	-10.2332
▁thrilling	-10.2344
fitting	-10.2349
known	-10.2374
▁jagge	-10.2383
▁sal	-10.2389
▁chances	-10.2405
▁suit	-10.2406
▁conjure	-10.2409
numbingly	-10.2426
rated	-10.2466
▁ne	-10.249
dling	-10.2496
omical	-10.2499
▁dimension	-10.25
see	-10.2501
loud	-10.2506
pleasing	-10.2509
fiction	-10.2509
concept	-10.2509
▁absolute	-10.2512
place	-10.2514
▁ball	-10.2526
▁se	-10.2536
▁photograph	-10.2541
▁stretch	-10.2558
▁inhabit	-10.2567
league	-10.2567
▁chief	-10.2567
▁conservative	-10.2567
▁curiosity	-10.2567
▁disposable	-10.2567
▁elegance	-10.2567
▁equilibrium	-10.2567
▁evelyn	-10.2567
▁incongruous	-10.2567
▁inescapabl	-10.2567
▁innovative	-10.2567
▁malaise	-10.2567
▁manufactured	-10.2567
▁metropoli	-10.2567
▁obligatory	-10.2567
▁postcard	-10.2567
▁poverty	-10.2567
▁practice	-10.2567
▁recipe	-10.2567
▁replete	-10.2567
▁stinker	-10.2567
▁deadpan	-10.2567
▁eight	-10.2567
▁tepid	-10.2567
▁enjoyment	-10.2567
▁mushy	-10.2567
▁sword	-10.2567
▁rival	-10.2567
▁primarily	-10.2567
▁urgent	-10.2567
▁helm	-10.2567
▁sickening	-10.2567
fisted	-10.2567
ncent	-10.2567
▁chick	-10.2568
▁argument	-10.2568
▁broadway	-10.2568
▁prison	-10.2568
▁soft	-10.2568
▁club	-10.2568
▁fancy	-10.2568
▁translation	-10.2568
▁provoke	-10.2569
ville	-10.2569
▁reign	-10.2569
▁derive	-10.2569
▁boat	-10.257
▁tasteful	-10.257
▁torn	-10.2571
▁anybody	-10.2571
ratic	-10.2573
▁reaction	-10.2573
▁veer	-10.2574
▁swan	-10.2575
▁peak	-10.2575
▁double	-10.2577
▁morality	-10.2577
gain	-10.2577
▁empowerment	-10.2577
▁swallow	-10.2579
▁recovery	-10.2581
tep	-10.2582
▁populat	-10.2584
▁offend	-10.2585
tress	-10.2586
▁caper	-10.2589
▁pointed	-10.2594
▁blatant	-10.2596
▁loving	-10.2598
▁outside	-10.2602
lia	-10.2603
deserved	-10.2606
▁achieve	-10.2618
▁critical	-10.2622
▁gun	-10.2658
rish	-10.2659
▁marvelously	-10.2679
sai	-10.268
▁fly	-10.2691
ean	-10.2692
etic	-10.2705
▁frustratingly	-10.2711
ude	-10.2713
hai	-10.2729
▁pra	-10.2739
▁protagonists	-10.2742
ica	-10.275
▁collapses	-10.2753
▁rap	-10.2757
▁remembering	-10.2767
hong	-10.2773
▁11	-10.2774
ving	-10.28
▁bear	-10.2833
▁morally	-10.2846
▁matt	-10.2847
tting	-10.2849
stic	-10.2855
wai	-10.2858
▁span	-10.286
▁tom	-10.2871
▁gorgeously	-10.2875
▁hoot	-10.2886
eeming	-10.2889
together	-10.2893
mill	-10.2893
important	-10.2894
hew	-10.2894
fest	-10.2907
done	-10.2911
▁ps	-10.2915
▁produce	-10.292
▁base	-10.2923
▁fluff	-10.2925
acted	-10.2931
▁efforts	-10.2935
balanced	-10.2938
hallow	-10.2944
▁generate	-10.2946
▁psyche	-10.2952
utionary	-10.2952
▁anguish	-10.2952
▁conspirac	-10.2952
▁dawson	-10.2952
▁esther	-10.2952
▁ethnic	-10.2952
▁evident	-10.2952
▁fascinate	-10.2952
▁groan	-10.2952
▁impersonal	-10.2952
▁inconsistent	-10.2952
▁languorous	-10.2952
▁loneliness	-10.2952
▁machismo	-10.2952
▁memories	-10.2952
▁mexic	-10.2952
▁misogyny	-10.2952
▁observant	-10.2952
▁pantheon	-10.2952
▁patient	-10.2952
▁pertinent	-10.2952
▁redemption	-10.2952
▁separate	-10.2952
▁shenanigans	-10.2952
▁stiff	-10.2952
▁transparent	-10.2952
▁unsentimental	-10.2952
▁error	-10.2952
▁individual	-10.2952
▁student	-10.2952
▁boredom	-10.2952
▁hideously	-10.2952
▁invite	-10.2952
▁ease	-10.2952
▁clown	-10.2952
▁debate	-10.2952
▁bogs	-10.2952
▁reputation	-10.2952
▁bal	-10.2952
▁musicians	-10.2953
▁normal	-10.2954
▁truthful	-10.2955
▁somebody	-10.2957
▁freeman	-10.2959
▁sensitivity	-10.2961
▁keen	-10.2963
▁payoff	-10.2963
▁excesses	-10.2963
▁awkwardness	-10.2964
▁kidman	-10.2965
▁enjoyably	-10.2965
▁pulpy	-10.2967
▁ruined	-10.2967
▁reek	-10.297
▁impressed	-10.2976
▁30	-10.2978
▁blandness	-10.2979
▁meet	-10.2983
▁incorporate	-10.2987
▁strip	-10.2991
plus	-10.3009
▁classical	-10.3033
▁willis	-10.3034
▁spectacularly	-10.3042
▁dance	-10.3049
▁recording	-10.3063
▁split	-10.3065
▁wash	-10.3085
long	-10.3107
▁souls	-10.3119
▁effectively	-10.3123
▁antic	-10.3133
▁seeking	-10.314
▁seats	-10.3152
▁notable	-10.3154
mission	-10.3184
▁filling	-10.3214
take	-10.3222
▁bow	-10.3234
▁disappoint	-10.3243
▁sacrific	-10.3248
▁pho	-10.3256
▁doses	-10.3257
act	-10.3262
▁su	-10.3267
bo	-10.3269
lsh	-10.3272
▁videos	-10.3277
eck	-10.3283
stein	-10.3295
▁shameless	-10.3302
▁qui	-10.3305
▁perform	-10.3307
▁eeri	-10.3309
call	-10.3312
▁grin	-10.332
▁torture	-10.3321
boy	-10.3321
tar	-10.3332
▁knock	-10.3341
▁manipulati	-10.3344
button	-10.335
▁press	-10.335
▁stylistic	-10.335
▁ham	-10.335
▁trap	-10.3351
inducing	-10.3352
▁album	-10.3352
▁baffling	-10.3352
▁conspicuous	-10.3352
▁credibility	-10.3352
▁emphasis	-10.3352
▁enhance	-10.3352
▁fiennes	-10.3352
▁fragile	-10.3352
▁grotesque	-10.3352
▁paradi	-10.3352
▁ravishing	-10.3352
▁scope	-10.3352
▁static	-10.3352
▁system	-10.3352
▁traffic	-10.3352
▁understated	-10.3352
▁vintage	-10.3352
▁bomb	-10.3352
▁emptiness	-10.3352
▁rerun	-10.3352
▁carol	-10.3352
▁piano	-10.3352
▁underbelly	-10.3352
▁acclaim	-10.3352
▁concert	-10.3352
▁misfire	-10.3352
▁hurt	-10.3352
▁families	-10.3352
▁panache	-10.3352
▁demons	-10.3352
▁textbook	-10.3352
▁pungent	-10.3352
▁becoming	-10.3352
▁wrapped	-10.3352
▁pathos	-10.3352
▁dahmer	-10.3352
▁whiny	-10.3353
▁anchor	-10.3353
▁alienation	-10.3353
▁busy	-10.3354
▁chew	-10.3355
▁smear	-10.3355
▁101	-10.3355
▁godard	-10.3356
▁vain	-10.3356
▁tour	-10.3357
▁caring	-10.3359
▁specific	-10.336
ngle	-10.3362
▁milk	-10.3363
▁defeat	-10.3363
▁chest	-10.3365
▁cry	-10.3365
▁1/2	-10.3367
▁carvey	-10.3368
▁parody	-10.337
gun	-10.3373
▁sophomoric	-10.3375
▁biograph	-10.3382
▁stunts	-10.3393
▁nonsense	-10.3399
▁aspect	-10.3417
▁decade	-10.3417
▁ache	-10.3419
▁damaged	-10.3427
sca	-10.3428
▁loosely	-10.343
mous	-10.3435
rung	-10.3445
▁exceptionally	-10.345
▁hay	-10.3456
feminist	-10.3456
▁positively	-10.3467
fan	-10.3469
▁sc	-10.3475
▁moody	-10.348
letting	-10.3493
▁nai	-10.3495
▁catche	-10.3496
▁darker	-10.3514
ake	-10.3522
▁believ	-10.3525
▁naturally	-10.3547
▁thinks	-10.355
▁lighting	-10.3565
ja	-10.3567
▁winds	-10.3573
▁villains	-10.358
▁fore	-10.3603
sake	-10.3647
▁creep	-10.3677
▁moves	-10.3679
▁shines	-10.3682
▁arn	-10.3696
earth	-10.3705
discovery	-10.371
joke	-10.371
inspiring	-10.3711
▁wondrous	-10.3713
▁carry	-10.3715
▁pushe	-10.3725
▁pretensions	-10.3751
eil	-10.3754
▁icon	-10.3761
nny	-10.3765
▁lur	-10.3767
cession	-10.3767
hmer	-10.3768
jerk	-10.3768
toric	-10.3768
▁uncertain	-10.3768
incomprehensible	-10.3768
▁attack	-10.3768
▁backdrop	-10.3768
▁bruckheimer	-10.3768
▁capturing	-10.3768
▁claustrophobic	-10.3768
▁climactic	-10.3768
▁clothes	-10.3768
▁concoction	-10.3768
▁contradictory	-10.3768
▁discipline	-10.3768
▁exaggerated	-10.3768
▁extravagant	-10.3768
▁flamboyant	-10.3768
▁hypnotic	-10.3768
▁liberating	-10.3768
▁medium	-10.3768
▁negative	-10.3768
▁obsessive	-10.3768
▁pokemon	-10.3768
▁quarter	-10.3768
▁sensibilities	-10.3768
▁snipes	-10.3768
▁status	-10.3768
▁subversive	-10.3768
▁uninteresting	-10.3768
▁untalented	-10.3768
▁objective	-10.3768
▁organic	-10.3768
▁sisters	-10.3768
▁kahlo	-10.3768
▁susan	-10.3769
▁illuminating	-10.3769
▁admitted	-10.3769
▁authority	-10.3769
▁swinging	-10.3769
▁vol	-10.3769
▁vein	-10.3769
▁lightweight	-10.377
▁seams	-10.377
▁idiots	-10.377
▁trope	-10.3771
▁wholesome	-10.3771
▁meaningless	-10.3771
▁flourishes	-10.3771
▁brave	-10.3771
▁figures	-10.3771
▁snap	-10.3771
▁dro	-10.3773
▁jell	-10.3774
▁momentum	-10.3774
▁growth	-10.3774
▁fable	-10.3776
▁package	-10.3776
▁artistry	-10.3777
▁advantage	-10.3777
▁phones	-10.3778
▁format	-10.378
▁tragically	-10.3781
▁fallen	-10.3781
▁uncomfortable	-10.3785
ber	-10.3788
▁profile	-10.379
▁pry	-10.379
▁palm	-10.379
▁hall	-10.3791
▁dime	-10.3795
▁expectations	-10.3797
▁seemingly	-10.3799
▁ha	-10.38
▁anger	-10.3806
▁artsy	-10.3807
▁holly	-10.3814
▁layered	-10.3816
emper	-10.3819
▁heroes	-10.382
▁hey	-10.3831
▁moviegoing	-10.3834
▁assume	-10.3845
▁christ	-10.3851
▁brother	-10.3851
cia	-10.3853
▁struggled	-10.3855
▁shockingly	-10.3859
clas	-10.3861
ette	-10.3862
▁6	-10.3862
▁solidly	-10.3872
▁affirming	-10.3879
▁tuck	-10.3884
▁shine	-10.389
▁derri	-10.3897
▁tackl	-10.3918
▁numbers	-10.3925
las	-10.3943
00	-10.3944
ooper	-10.3954
▁kinda	-10.3955
▁painting	-10.3965
▁higher	-10.398
rogue	-10.3983
affirming	-10.3983
▁impressions	-10.3998
▁pur	-10.4021
▁contrivances	-10.4026
per	-10.4027
▁mcdo	-10.4035
baked	-10.404
▁awfully	-10.4041
▁breathe	-10.405
considered	-10.4068
nal	-10.4071
▁luc	-10.4072
▁experiences	-10.4103
▁weave	-10.4109
action	-10.4141
girl	-10.4145
▁excruciating	-10.4147
▁unabashed	-10.4148
ug	-10.4166
ightened	-10.4197
▁idio	-10.42
▁pomp	-10.42
▁reflect	-10.4201
▁fail	-10.4201
▁narrat	-10.4201
ourselves	-10.4203
▁accident	-10.4203
▁audacious	-10.4203
▁audi	-10.4203
▁bombastic	-10.4203
▁casual	-10.4203
▁compromise	-10.4203
▁conversation	-10.4203
▁disjointed	-10.4203
▁documentaries	-10.4203
▁elbow	-10.4203
▁europe	-10.4203
▁fizz	-10.4203
▁hedonistic	-10.4203
▁hilarity	-10.4203
▁horribly	-10.4203
▁incredible	-10.4203
▁informative	-10.4203
▁innocent	-10.4203
▁kaufman	-10.4203
▁narcissism	-10.4203
▁opaque	-10.4203
▁pepper	-10.4203
▁pitfalls	-10.4203
▁possess	-10.4203
▁sensibility	-10.4203
▁shrill	-10.4203
▁simone	-10.4203
▁subtext	-10.4203
▁survival	-10.4203
▁tomorrow	-10.4203
▁unconventional	-10.4203
▁unnerving	-10.4203
▁unsympathetic	-10.4203
▁glaring	-10.4203
▁kwan	-10.4203
▁matinee	-10.4203
▁ralph	-10.4203
▁transport	-10.4203
▁woefully	-10.4203
▁jew	-10.4203
▁hill	-10.4203
▁latter	-10.4203
▁assault	-10.4203
▁consciousness	-10.4203
▁lunacy	-10.4203
▁retro	-10.4203
▁stifl	-10.4203
▁reviews	-10.4203
▁kinetic	-10.4203
▁shoe	-10.4204
▁proportions	-10.4204
▁fix	-10.4204
▁outtakes	-10.4204
▁bruc	-10.4204
▁13	-10.4204
▁distraction	-10.4205
▁ethic	-10.4205
▁childlike	-10.4205
ellen	-10.4206
▁recommendation	-10.4207
▁procedur	-10.421
▁nail	-10.421
▁pokes	-10.421
▁bodies	-10.4211
▁nobody	-10.4211
▁determination	-10.4212
▁improvised	-10.4217
conceived	-10.4219
▁crackle	-10.4221
wattage	-10.4221
▁france	-10.4222
vern	-10.4223
▁coma	-10.4224
▁dramatiz	-10.4228
▁shre	-10.4234
▁cable	-10.4234
▁fits	-10.4236
▁unintentionally	-10.4237
▁nick	-10.4246
▁argentine	-10.4255
▁plotless	-10.4258
▁later	-10.4265
▁sch	-10.4273
▁nose	-10.4273
▁subplots	-10.4276
▁insultingly	-10.4278
▁hust	-10.428
tech	-10.4296
▁unit	-10.4298
▁accent	-10.4303
▁noticeabl	-10.4308
▁tosse	-10.432
▁building	-10.4323
▁entertained	-10.4323
dish	-10.4338
▁ph	-10.4356
▁recommended	-10.4366
nder	-10.4375
▁clichéd	-10.4375
▁lessons	-10.438
▁arts	-10.4398
▁titles	-10.4429
▁featur	-10.4431
▁numbing	-10.4458
▁tediously	-10.4464
▁sara	-10.4464
▁conceits	-10.4473
eful	-10.4489
▁canne	-10.4513
site	-10.4515
▁victims	-10.4522
▁wonders	-10.4523
tz	-10.4534
▁poo	-10.4543
dles	-10.4547
▁rat	-10.4553
▁mode	-10.4555
▁del	-10.4556
▁humane	-10.4569
view	-10.459
aki	-10.4596
ort	-10.46
▁expert	-10.4602
▁glorious	-10.4603
▁generates	-10.461
▁render	-10.4623
max	-10.4645
▁bug	-10.4649
▁glu	-10.4652
eign	-10.4656
▁uni	-10.4657
▁fearless	-10.4657
▁access	-10.4657
▁multi	-10.4658
▁juliet	-10.4658
deprecating	-10.4658
▁alabama	-10.4658
▁atlantic	-10.4658
▁clockstoppers	-10.4658
▁composition	-10.4658
▁conduct	-10.4658
▁confidence	-10.4658
▁disquieting	-10.4658
▁emphasize	-10.4658
▁feathers	-10.4658
▁flaccid	-10.4658
▁grasp	-10.4658
▁harris	-10.4658
▁impenetrable	-10.4658
▁improvement	-10.4658
▁indifference	-10.4658
▁infectious	-10.4658
▁innuendo	-10.4658
▁insomnia	-10.4658
▁jordan	-10.4658
▁jumble	-10.4658
▁leather	-10.4658
▁paranoia	-10.4658
▁practical	-10.4658
▁precision	-10.4658
▁rigor	-10.4658
▁rumination	-10.4658
▁schneider	-10.4658
▁schwarzenegger	-10.4658
▁scoop	-10.4658
▁shoddy	-10.4658
▁significance	-10.4658
▁simplicity	-10.4658
▁solutions	-10.4658
▁unrelenting	-10.4658
▁unrewarding	-10.4658
▁valuable	-10.4658
▁bleak	-10.4658
▁farcical	-10.4658
▁leaky	-10.4658
▁mountain	-10.4658
▁nifty	-10.4658
▁ooz	-10.4658
▁qualities	-10.4658
▁wallop	-10.4658
▁circumstances	-10.4658
▁fault	-10.4658
▁michel	-10.4658
▁tarant	-10.4658
▁western	-10.4658
▁china	-10.4658
▁distant	-10.4658
▁alluring	-10.4658
▁attach	-10.4658
▁jona	-10.4658
▁glossy	-10.4658
▁rubb	-10.4658
manhood	-10.4658
▁riot	-10.4658
▁minimalist	-10.4658
▁avary	-10.4658
▁exterior	-10.4658
predict	-10.4658
▁ult	-10.4658
▁texture	-10.4658
▁range	-10.4658
▁parade	-10.4659
▁damon	-10.4659
▁budd	-10.466
▁blame	-10.466
▁secretary	-10.466
▁idealism	-10.466
▁insurance	-10.4661
▁pool	-10.4661
▁sorry	-10.4662
▁irre	-10.4662
▁refuses	-10.4662
▁category	-10.4662
▁fearlessness	-10.4663
▁plight	-10.4663
▁influence	-10.4663
▁hotel	-10.4664
▁jazzy	-10.4666
▁upbeat	-10.4667
▁sway	-10.4669
▁squeeze	-10.4669
▁dig	-10.4669
▁hyper	-10.4671
ination	-10.4678
▁cuteness	-10.4679
60	-10.4679
▁semi	-10.4681
▁claim	-10.4684
▁hang	-10.4684
▁defi	-10.4686
▁gory	-10.4692
▁hart	-10.4698
▁evokes	-10.4701
▁trashy	-10.4707
▁ties	-10.4712
▁neo	-10.4722
▁disguised	-10.4731
▁goof	-10.4735
ickle	-10.4746
▁pleaser	-10.475
▁ready	-10.4752
americans	-10.4763
▁arm	-10.4764
▁sunda	-10.4768
▁field	-10.4772
▁reminder	-10.4774
▁scratching	-10.4774
▁transcend	-10.4778
▁prime	-10.4782
0	-10.4783
▁seal	-10.4786
▁disappointingly	-10.479
▁minute	-10.4792
▁indulgent	-10.4797
▁longing	-10.4798
▁door	-10.4807
▁amazingly	-10.4823
▁gain	-10.483
▁anne	-10.4891
▁predecessors	-10.4893
▁clinic	-10.4894
▁yi	-10.4915
par	-10.4948
▁undercuts	-10.4958
▁sinks	-10.4962
ittered	-10.4974
making	-10.4979
▁impressively	-10.4984
▁cor	-10.4989
sis	-10.5038
▁requir	-10.5053
member	-10.5072
pleaser	-10.5075
bill	-10.5076
some	-10.5077
stage	-10.5083
town	-10.5085
▁greater	-10.5089
▁limit	-10.5092
▁suits	-10.5099
▁savor	-10.5107
xistent	-10.5109
▁bab	-10.511
▁fli	-10.5112
lies	-10.5114
▁uncomfortabl	-10.5115
kin	-10.5116
destructive	-10.5129
▁nichol	-10.5132
▁demographic	-10.5134
▁ancient	-10.5134
▁baggage	-10.5134
▁bluster	-10.5134
▁brilliance	-10.5134
▁brooklyn	-10.5134
▁calculat	-10.5134
▁controversy	-10.5134
▁davis	-10.5134
▁disregard	-10.5134
▁duvall	-10.5134
▁encompass	-10.5134
▁extraordinarily	-10.5134
▁gravity	-10.5134
▁interminable	-10.5134
▁jaglom	-10.5134
▁liberation	-10.5134
▁literate	-10.5134
▁lobby	-10.5134
▁manhattan	-10.5134
▁meditative	-10.5134
▁monotonous	-10.5134
▁nonjudgmental	-10.5134
▁principal	-10.5134
▁profane	-10.5134
▁puerile	-10.5134
▁refugees	-10.5134
▁spears	-10.5134
▁stream	-10.5134
▁substitute	-10.5134
▁technique	-10.5134
▁turf	-10.5134
▁unassuming	-10.5134
▁diverse	-10.5134
▁drunken	-10.5134
▁juicy	-10.5134
▁steam	-10.5134
▁abstract	-10.5134
▁tank	-10.5134
▁amiable	-10.5134
▁sermon	-10.5134
▁limitations	-10.5134
▁media	-10.5134
▁month	-10.5134
▁comedian	-10.5134
▁leap	-10.5134
aggr	-10.5134
▁undermin	-10.5134
▁wallet	-10.5134
▁bank	-10.5134
▁deniro	-10.5134
▁gosling	-10.5134
▁terrorist	-10.5135
▁radiant	-10.5135
▁juice	-10.5135
▁foolish	-10.5135
▁18	-10.5136
gment	-10.5137
▁priv	-10.5137
▁pants	-10.5137
▁nostalgic	-10.5137
▁aisle	-10.5137
▁anderson	-10.5138
▁vast	-10.5139
▁flip	-10.5139
▁goals	-10.514
▁recall	-10.514
orious	-10.5142
▁cock	-10.5143
▁glum	-10.5145
▁slim	-10.5146
▁incarnation	-10.5147
▁tense	-10.5147
awake	-10.5148
▁lighthearted	-10.515
nerds	-10.5152
▁guaranteed	-10.5152
▁slightest	-10.5154
▁jess	-10.5154
▁dose	-10.5154
fifteen	-10.5155
mouthed	-10.5158
▁hungry	-10.5158
▁russ	-10.5164
▁dashing	-10.5167
▁librar	-10.5171
ssay	-10.5171
▁compos	-10.5172
▁consequences	-10.5179
▁receive	-10.518
▁heated	-10.5189
▁desired	-10.5196
▁shoulders	-10.5211
▁makeup	-10.5237
▁ray	-10.5237
▁stitch	-10.524
▁logical	-10.5259
▁realiz	-10.5262
▁sucked	-10.5265
▁victim	-10.5277
▁surprised	-10.5278
▁answer	-10.5285
uel	-10.5285
▁sucker	-10.5295
▁brightly	-10.5302
▁min	-10.5316
▁shadows	-10.5326
▁wan	-10.5343
▁bogg	-10.5343
▁conventions	-10.5358
▁animals	-10.5364
lly	-10.538
ctory	-10.5407
▁deceptions	-10.5413
▁psychologically	-10.5454
▁boil	-10.5461
▁gifts	-10.5468
irth	-10.547
turned	-10.5494
▁han	-10.5495
▁lam	-10.5495
▁ash	-10.5523
mme	-10.5527
▁affirm	-10.557
nonsense	-10.5575
▁forceful	-10.5575
suspect	-10.5575
ability	-10.5576
child	-10.5576
game	-10.5576
around	-10.5576
ine	-10.559
dded	-10.5599
▁etc	-10.5599
▁amuse	-10.5601
▁muddle	-10.5604
vid	-10.5612
▁lit	-10.5613
pis	-10.5614
▁franc	-10.5616
describ	-10.5622
▁bol	-10.5623
▁steve	-10.5624
▁bubb	-10.5625
▁sag	-10.5631
▁immatur	-10.5632
▁import	-10.5632
sync	-10.5634
▁unapologetic	-10.5634
renowned	-10.5634
▁accumulate	-10.5634
▁articulate	-10.5634
▁cerebral	-10.5634
▁challenge	-10.5634
▁condescending	-10.5634
▁crummy	-10.5634
▁employ	-10.5634
▁heights	-10.5634
▁improvisation	-10.5634
▁irrelevant	-10.5634
▁knack	-10.5634
▁lecture	-10.5634
▁legacy	-10.5634
▁lofty	-10.5634
▁meticulous	-10.5634
▁neighborhood	-10.5634
▁overexposed	-10.5634
▁penetrating	-10.5634
▁piercing	-10.5634
▁reassuring	-10.5634
▁scenic	-10.5634
▁signpost	-10.5634
▁silver	-10.5634
▁sinister	-10.5634
▁specimen	-10.5634
▁spontaneity	-10.5634
▁undoubtedly	-10.5634
▁uneasy	-10.5634
▁unimaginable	-10.5634
▁unmentionable	-10.5634
achieving	-10.5634
▁expand	-10.5634
▁zipp	-10.5634
▁dragonfly	-10.5634
▁uneventful	-10.5634
▁mount	-10.5634
▁overbearing	-10.5634
▁scrap	-10.5634
▁judd	-10.5634
▁stylized	-10.5634
▁clash	-10.5634
▁tempting	-10.5634
▁continuity	-10.5634
▁kur	-10.5634
▁angry	-10.5635
▁alleged	-10.5635
▁confront	-10.5635
▁wake	-10.5635
▁ballistic	-10.5635
▁idealistic	-10.5635
▁secondhand	-10.5636
righteousness	-10.5636
▁losers	-10.5636
▁assurance	-10.5636
▁100	-10.5636
▁punk	-10.5637
▁unforgettable	-10.5638
▁react	-10.5638
▁sleepless	-10.5639
▁merc	-10.5639
▁thematically	-10.5639
ocity	-10.5639
▁six	-10.5641
▁laid	-10.5642
▁acceptable	-10.5642
▁joyless	-10.5643
▁procession	-10.5644
▁saga	-10.5644
▁rejected	-10.5646
dot	-10.5647
string	-10.5648
▁celebrated	-10.5648
▁gel	-10.5652
▁daytime	-10.5653
▁candid	-10.5654
▁pilot	-10.5657
itched	-10.5657
▁hammy	-10.5659
▁driver	-10.5662
▁cage	-10.5663
▁strongest	-10.5666
▁education	-10.5669
▁twenty	-10.5669
▁foot	-10.5672
▁flop	-10.5673
ttling	-10.5674
seat	-10.5681
▁failed	-10.5683
▁satisfyingly	-10.5691
prop	-10.5698
rling	-10.5702
rio	-10.5703
▁mall	-10.5708
▁focused	-10.5711
▁dive	-10.5714
war	-10.572
▁yu	-10.5729
▁bull	-10.5732
▁participants	-10.5737
▁define	-10.5738
▁professionals	-10.5745
▁infuses	-10.5745
▁hol	-10.5749
▁profoundly	-10.5759
▁gift	-10.5761
non	-10.5777
roiling	-10.578
▁fathers	-10.5782
tale	-10.5784
▁ears	-10.5805
ski	-10.5808
▁punching	-10.5814
erous	-10.5816
▁winners	-10.5839
▁mad	-10.584
nan	-10.5843
▁comb	-10.5846
dazzle	-10.5859
▁directly	-10.5866
unny	-10.587
▁hoped	-10.5871
▁explor	-10.5871
▁ste	-10.5875
tv	-10.5875
ledge	-10.5878
nter	-10.5881
▁aspires	-10.5882
▁intensely	-10.5892
▁burst	-10.5907
▁prefer	-10.591
timed	-10.5931
▁cri	-10.5947
▁sche	-10.5954
ought	-10.5958
▁tack	-10.5976
addle	-10.5995
▁va	-10.6011
hand	-10.6036
handled	-10.6045
▁swi	-10.6049
▁rep	-10.6054
friendly	-10.6056
garde	-10.6061
▁resembl	-10.6076
▁exploit	-10.6086
road	-10.6096
meaning	-10.6098
fused	-10.6099
piece	-10.6101
induce	-10.6101
book	-10.6102
based	-10.6102
comedy	-10.6103
▁frequent	-10.6106
camp	-10.6106
▁tea	-10.6106
▁hamm	-10.6106
been	-10.6124
▁compellingly	-10.6131
▁destin	-10.6132
▁dan	-10.6137
new	-10.6138
▁bodi	-10.6152
intentionally	-10.6154
▁basi	-10.6157
serving	-10.6158
▁cro	-10.6159
rice	-10.616
mpire	-10.616
▁comprehen	-10.616
▁intellect	-10.616
▁bilked	-10.616
▁brawn	-10.616
▁chicago	-10.616
▁churn	-10.616
▁coffee	-10.616
▁contrast	-10.616
▁crudup	-10.616
▁cylinders	-10.616
▁definitive	-10.616
▁detached	-10.616
▁elicit	-10.616
▁hewitt	-10.616
▁kitchen	-10.616
▁loathsome	-10.616
▁lunch	-10.616
▁mediocrity	-10.616
▁miserable	-10.616
▁misguided	-10.616
▁monstrous	-10.616
▁nijinsky	-10.616
▁overcooked	-10.616
▁philip	-10.616
▁pitiful	-10.616
▁program	-10.616
▁retain	-10.616
▁rouge	-10.616
▁sabotage	-10.616
▁scrooge	-10.616
▁shriek	-10.616
▁sisterhood	-10.616
▁sleeve	-10.616
▁struggling	-10.616
▁supernatural	-10.616
▁thirty	-10.616
▁warfare	-10.616
▁wilson	-10.616
▁wisdom	-10.616
▁51	-10.616
▁apply	-10.616
▁excited	-10.616
▁laudable	-10.616
▁sweat	-10.616
▁round	-10.616
▁stray	-10.616
▁subtitles	-10.616
inoche	-10.616
▁collision	-10.616
▁entry	-10.616
▁contest	-10.616
▁instance	-10.616
▁ilk	-10.616
▁elect	-10.616
▁incl	-10.6161
▁schlock	-10.6161
▁moronic	-10.6161
▁dreck	-10.6161
▁pride	-10.6161
▁address	-10.6161
▁intact	-10.6161
▁impart	-10.6161
▁sack	-10.6161
▁breadth	-10.6161
lilo	-10.6162
▁harmless	-10.6162
▁nicholson	-10.6162
▁julia	-10.6162
▁peek	-10.6162
▁boot	-10.6163
▁brim	-10.6163
▁fright	-10.6164
kno	-10.6164
erox	-10.6164
▁purposeful	-10.6165
▁peril	-10.6166
▁caine	-10.6167
▁chiller	-10.6167
▁highlight	-10.6168
▁arbitrary	-10.6168
▁definition	-10.6168
▁superficiality	-10.6169
▁host	-10.6169
▁undone	-10.6171
▁update	-10.6173
▁bible	-10.6174
▁careful	-10.618
▁fourth	-10.618
▁callar	-10.618
▁lifestyle	-10.6181
▁hilariously	-10.6181
▁vig	-10.6182
▁join	-10.6184
medical	-10.6184
▁drum	-10.6186
ened	-10.6187
▁grind	-10.6187
▁inventiveness	-10.619
▁assembled	-10.6192
▁complaint	-10.6194
hony	-10.6194
▁argue	-10.6195
▁duk	-10.6197
▁vers	-10.6201
hammer	-10.6204
▁effortlessly	-10.6207
▁artistes	-10.6215
▁myth	-10.6216
▁shout	-10.6219
nette	-10.6231
▁bon	-10.6232
▁lol	-10.6236
▁inspires	-10.624
nry	-10.6241
▁drowned	-10.6244
▁weighty	-10.6245
▁rand	-10.6252
rman	-10.6254
very	-10.6258
▁strongly	-10.6266
▁ingredients	-10.6269
▁expose	-10.6278
duck	-10.6279
bare	-10.6294
▁model	-10.6299
au	-10.6311
▁damning	-10.6315
▁oc	-10.632
▁reg	-10.6325
bar	-10.6326
▁greatness	-10.6327
▁rose	-10.6328
▁twink	-10.6345
▁dragg	-10.6347
trospective	-10.6348
▁border	-10.6358
▁undercut	-10.6364
▁sport	-10.6364
▁bard	-10.6367
▁traditions	-10.637
▁bro	-10.6392
▁spi	-10.6444
▁allowed	-10.6444
▁char	-10.6478
▁helped	-10.6493
▁borders	-10.6511
▁opening	-10.6519
owing	-10.6525
▁laughed	-10.6534
nged	-10.6541
▁198	-10.6556
any	-10.6559
ache	-10.6594
▁eva	-10.6615
face	-10.6629
physical	-10.6632
fil	-10.6634
cooper	-10.664
▁pun	-10.6641
▁craft	-10.665
inspired	-10.6651
▁support	-10.6652
limited	-10.6658
white	-10.6658
flick	-10.6658
pass	-10.6659
▁atrocious	-10.6659
▁consistent	-10.6661
worthy	-10.6666
▁mc	-10.6672
▁labor	-10.6673
neath	-10.6677
progress	-10.6678
cut	-10.6684
▁toss	-10.6686
▁pok	-10.6707
▁stylist	-10.6714
▁dread	-10.6715
▁vietnam	-10.6715
statement	-10.6716
masculine	-10.6716
▁allegory	-10.6716
▁astute	-10.6716
▁awakening	-10.6716
▁blaxploitation	-10.6716
▁camouflag	-10.6716
▁daniel	-10.6716
▁dialog	-10.6716
▁disintegrat	-10.6716
▁duration	-10.6716
▁dutiful	-10.6716
▁elsewhere	-10.6716
▁encourage	-10.6716
▁excels	-10.6716
▁explode	-10.6716
▁flailing	-10.6716
▁freedom	-10.6716
▁fundamental	-10.6716
▁generosity	-10.6716
▁grim	-10.6716
▁hawk	-10.6716
▁impulse	-10.6716
▁inoffensive	-10.6716
▁inquisitive	-10.6716
▁invaluable	-10.6716
▁ironies	-10.6716
▁irreparable	-10.6716
▁lapses	-10.6716
▁melancholy	-10.6716
▁mundane	-10.6716
▁object	-10.6716
▁pill	-10.6716
▁plympton	-10.6716
▁porridge	-10.6716
▁predictability	-10.6716
▁prejudice	-10.6716
▁puzzle	-10.6716
▁puzzling	-10.6716
▁ramsay	-10.6716
▁relaxed	-10.6716
▁reliable	-10.6716
▁sanctimonious	-10.6716
▁sloppily	-10.6716
▁travail	-10.6716
▁turgid	-10.6716
▁accuse	-10.6716
▁canvas	-10.6716
▁disturbing	-10.6716
▁solemn	-10.6716
▁sportsmen	-10.6716
▁universe	-10.6716
▁freddy	-10.6716
▁grave	-10.6716
▁siege	-10.6716
▁sprightly	-10.6716
▁weaknesses	-10.6716
▁command	-10.6716
asleep	-10.6716
▁flashbacks	-10.6716
▁clamor	-10.6716
opher	-10.6716
▁wig	-10.6716
▁banter	-10.6716
▁zeal	-10.6716
▁restrain	-10.6716
▁knee	-10.6716
▁biopic	-10.6716
▁conceptual	-10.6716
▁blockbusters	-10.6716
▁lunatic	-10.6716
▁believability	-10.6716
▁consume	-10.6716
▁lord	-10.6716
porn	-10.6716
▁adher	-10.6716
▁lodg	-10.6716
▁abroad	-10.6716
▁legendary	-10.6716
▁auteuil	-10.6716
▁molly	-10.6717
▁maze	-10.6717
▁bath	-10.6717
▁spotlight	-10.6717
▁mugging	-10.6717
▁hint	-10.6717
▁theories	-10.6717
▁circuit	-10.6718
▁compulsive	-10.6718
▁duty	-10.6718
▁hitchcockian	-10.6718
▁rewarded	-10.6718
▁restroom	-10.6718
▁transformation	-10.6719
▁singer	-10.6719
▁bartle	-10.6719
▁complexities	-10.672
▁merge	-10.672
▁veil	-10.672
▁sensuality	-10.6721
▁probe	-10.6722
▁associat	-10.6724
▁blip	-10.6724
▁philosophy	-10.6726
▁drivel	-10.6726
▁icono	-10.6726
▁fade	-10.6728
▁dana	-10.6728
▁jealousy	-10.6732
▁greas	-10.6733
▁ridiculousness	-10.6736
▁dual	-10.6737
▁tho	-10.6738
▁smoother	-10.6739
▁inexplicably	-10.6739
▁humanistic	-10.674
▁ele	-10.674
▁successor	-10.6742
▁maddeningly	-10.6743
▁board	-10.6745
▁baby	-10.6747
▁precisely	-10.6753
▁net	-10.6753
▁switch	-10.6755
▁literally	-10.6756
indulgence	-10.6756
▁underscor	-10.6759
▁wor	-10.6762
▁pb	-10.6766
▁skillfully	-10.6769
ographic	-10.6778
riv	-10.6778
▁goo	-10.6779
▁mcc	-10.679
▁wondrously	-10.6791
▁accurately	-10.6804
▁lifetime	-10.6817
▁stooping	-10.6819
▁lark	-10.6821
▁aimlessly	-10.6823
inated	-10.6826
▁reefs	-10.6831
▁arch	-10.6837
▁ripe	-10.6837
▁charl	-10.6839
generated	-10.6855
phant	-10.6859
panic	-10.687
▁intelligently	-10.6888
▁sin	-10.6889
▁athletes	-10.6895
tract	-10.6899
▁superbly	-10.6924
▁dad	-10.6946
▁showcase	-10.6947
▁conceit	-10.6948
▁contrivance	-10.6948
ix	-10.6949
▁folk	-10.6951
▁represent	-10.6952
yk	-10.6953
▁likeable	-10.6984
edit	-10.6995
▁beg	-10.7012
appearing	-10.7016
han	-10.7048
▁sting	-10.7049
worn	-10.7052
arrow	-10.7056
▁thinly	-10.7061
▁showcases	-10.7066
there	-10.7068
▁bros	-10.7087
▁uniquely	-10.709
▁twi	-10.7091
ained	-10.7099
low	-10.712
aked	-10.7128
93	-10.7159
▁fo	-10.7163
ounce	-10.7204
▁arrest	-10.7238
▁disgust	-10.724
wash	-10.7246
control	-10.7246
break	-10.7246
something	-10.7246
dropping	-10.7248
▁adequate	-10.7248
dramatic	-10.7249
▁skillful	-10.7254
bel	-10.7258
▁hopeless	-10.7258
▁cheat	-10.7261
has	-10.7265
raw	-10.7266
▁clean	-10.7288
▁devi	-10.7294
▁carl	-10.7294
urance	-10.7298
▁depict	-10.7302
▁fool	-10.7302
▁translat	-10.7302
▁psycho	-10.7303
▁enigma	-10.7303
▁fellow	-10.7303
▁fabric	-10.7303
ñ	-10.7304
bopper	-10.7304
intentioned	-10.7304
▁audacity	-10.7304
▁baffled	-10.7304
▁bogus	-10.7304
▁boobs	-10.7304
▁brisk	-10.7304
▁church	-10.7304
▁conquer	-10.7304
▁delectable	-10.7304
▁devolves	-10.7304
▁echoes	-10.7304
▁executive	-10.7304
▁extravaganza	-10.7304
▁feast	-10.7304
▁fumble	-10.7304
▁haphazard	-10.7304
▁humming	-10.7304
▁inimitable	-10.7304
▁insecure	-10.7304
▁installment	-10.7304
▁isolation	-10.7304
▁journalism	-10.7304
▁kapur	-10.7304
▁lavish	-10.7304
▁motivation	-10.7304
▁oppressive	-10.7304
▁palpable	-10.7304
▁paxton	-10.7304
▁pearl	-10.7304
▁pedigree	-10.7304
▁proficient	-10.7304
▁prospect	-10.7304
▁rediscover	-10.7304
▁rotten	-10.7304
▁sardonic	-10.7304
▁soldiers	-10.7304
▁squad	-10.7304
▁symbolic	-10.7304
▁thread	-10.7304
▁truck	-10.7304
▁unblinking	-10.7304
▁unleashe	-10.7304
▁urine	-10.7304
▁yesterday	-10.7304
▁50	-10.7304
▁affleck	-10.7304
▁champion	-10.7304
▁collaborat	-10.7304
▁creepiness	-10.7304
▁introduction	-10.7304
▁recycling	-10.7304
▁volume	-10.7304
▁callow	-10.7304
▁kenne	-10.7304
▁pink	-10.7304
▁palette	-10.7304
▁gib	-10.7304
▁horse	-10.7304
▁bride	-10.7304
▁notwithstanding	-10.7304
consuming	-10.7304
▁masses	-10.7304
▁debt	-10.7304
▁diesel	-10.7304
▁crisis	-10.7304
▁nash	-10.7305
▁idiocy	-10.7305
▁craven	-10.7305
▁cranky	-10.7305
▁sorrowful	-10.7305
▁chaos	-10.7305
▁slipper	-10.7305
▁vietnamese	-10.7305
▁acid	-10.7305
▁clooney	-10.7305
▁accomplishment	-10.7305
guide	-10.7305
▁variation	-10.7305
▁bonus	-10.7305
▁admission	-10.7305
▁moralizing	-10.7306
▁resistance	-10.7306
▁absurdities	-10.7306
▁worry	-10.7306
▁transcendent	-10.7306
▁amusement	-10.7306
▁crossover	-10.7307
▁bravery	-10.7307
▁hitler	-10.7307
▁recklessness	-10.7307
▁fury	-10.7307
▁robin	-10.7308
▁alert	-10.7308
▁nav	-10.7308
▁bullets	-10.7308
▁compassionate	-10.7308
▁naturalistic	-10.7309
▁comment	-10.731
▁golden	-10.731
▁buttons	-10.7312
▁illustrates	-10.7312
▁randomness	-10.7313
▁sap	-10.7313
abby	-10.7314
▁olive	-10.7315
▁spirituality	-10.7315
▁formal	-10.7316
thful	-10.7316
▁overused	-10.7317
▁racist	-10.7318
▁chatt	-10.7318
itive	-10.7319
▁rapes	-10.7319
▁suitable	-10.732
▁conception	-10.7321
▁knockout	-10.7321
▁timid	-10.7324
lier	-10.7325
▁depressed	-10.7326
▁glorified	-10.7327
▁lean	-10.7329
▁80	-10.7332
▁plotline	-10.7336
▁revealed	-10.734
▁schem	-10.734
▁witnessed	-10.7342
▁extensi	-10.7342
▁march	-10.7344
▁dude	-10.7345
▁thoughtfulness	-10.7347
▁established	-10.735
▁counter	-10.7352
▁envelop	-10.7353
▁mist	-10.7356
▁hopelessly	-10.736
▁performed	-10.7367
▁improved	-10.7368
wrought	-10.7376
▁distanced	-10.7376
▁sooth	-10.7379
▁excruciatingly	-10.7381
plo	-10.7394
▁shir	-10.7396
▁kin	-10.7397
▁gracefully	-10.7401
▁embraced	-10.7401
▁introduce	-10.7405
▁grounded	-10.7414
▁amy	-10.7424
▁killed	-10.743
concerned	-10.7443
thought	-10.745
dream	-10.7463
fre	-10.7466
lbe	-10.7468
▁sat	-10.747
▁fest	-10.7471
cial	-10.7475
▁bowl	-10.7485
cash	-10.749
hy	-10.7494
▁colored	-10.7496
▁teeny	-10.7506
▁zing	-10.7523
▁layer	-10.7532
▁sounding	-10.7541
eel	-10.7562
behave	-10.7573
▁deception	-10.7586
dul	-10.7594
store	-10.7598
▁starting	-10.761
cam	-10.7639
▁protect	-10.7641
▁lag	-10.7666
bitt	-10.769
canny	-10.769
▁cra	-10.7732
▁soc	-10.774
ority	-10.7795
▁fuel	-10.7825
9	-10.7825
aware	-10.7865
proof	-10.787
&	-10.7871
family	-10.7871
▁savage	-10.7873
▁scot	-10.7876
brow	-10.7881
bin	-10.7885
▁distract	-10.7886
▁ki	-10.7886
▁stee	-10.79
▁spice	-10.79
▁effortless	-10.79
ovel	-10.79
▁schmaltz	-10.7902
▁inexplicabl	-10.7902
▁weep	-10.7903
▁technolog	-10.7903
▁boom	-10.7903
ronic	-10.791
▁animat	-10.7914
your	-10.7923
laden	-10.7925
▁nostalgi	-10.7925
ego	-10.7925
▁fren	-10.7926
▁terror	-10.7926
▁circu	-10.7927
quisite	-10.7928
esteem	-10.7929
▁elizabeth	-10.7929
gloss	-10.7929
▁sturdi	-10.7929
▁widow	-10.7929
basement	-10.7929
bodied	-10.7929
species	-10.7929
struck	-10.7929
uffa	-10.7929
▁afternoon	-10.7929
▁australia	-10.7929
▁backmasking	-10.7929
▁clunky	-10.7929
▁consolation	-10.7929
▁crippled	-10.7929
▁cumbersome	-10.7929
▁curves	-10.7929
▁decision	-10.7929
▁depraved	-10.7929
▁dubious	-10.7929
▁enlightening	-10.7929
▁enticing	-10.7929
▁fascination	-10.7929
▁function	-10.7929
▁genius	-10.7929
▁government	-10.7929
▁grisly	-10.7929
▁hallucin	-10.7929
▁inappropriate	-10.7929
▁inauthentic	-10.7929
▁insensitivity	-10.7929
▁irresistibly	-10.7929
▁kafka	-10.7929
▁levity	-10.7929
▁majestic	-10.7929
▁melancholic	-10.7929
▁merchant	-10.7929
▁morris	-10.7929
▁mumbo	-10.7929
▁mysteries	-10.7929
▁olivier	-10.7929
▁pastiche	-10.7929
▁pedestrian	-10.7929
▁pollution	-10.7929
▁predicament	-10.7929
▁reluctant	-10.7929
▁research	-10.7929
▁ritchie	-10.7929
▁scathing	-10.7929
▁sentence	-10.7929
▁serenity	-10.7929
▁sessions	-10.7929
▁simmer	-10.7929
▁soufflé	-10.7929
▁spontaneous	-10.7929
▁stinks	-10.7929
▁sudsy	-10.7929
▁survive	-10.7929
▁tabloid	-10.7929
▁tattered	-10.7929
▁thrust	-10.7929
▁tissue	-10.7929
▁unbearably	-10.7929
▁undercurrent	-10.7929
▁unmemorable	-10.7929
▁unsatisfying	-10.7929
▁unwatchable	-10.7929
▁videotape	-10.7929
▁virulent	-10.7929
▁wrestl	-10.7929
▁antonia	-10.7929
▁beguiling	-10.7929
▁inadequate	-10.7929
▁pandering	-10.7929
▁pulse	-10.7929
▁relate	-10.7929
▁resonate	-10.7929
▁cherish	-10.7929
▁clause	-10.7929
▁doofus	-10.7929
▁fixating	-10.7929
▁overrun	-10.7929
▁ditsy	-10.7929
▁placement	-10.7929
▁burger	-10.7929
▁lonely	-10.7929
▁shtick	-10.7929
burden	-10.7929
scends	-10.7929
▁ordeal	-10.7929
▁turd	-10.7929
▁outcome	-10.7929
▁risk	-10.7929
▁jackass	-10.7929
▁anime	-10.7929
▁cheeky	-10.7929
▁sociolog	-10.7929
drift	-10.793
▁repellent	-10.793
▁evade	-10.793
turb	-10.793
▁victimized	-10.793
▁enigmatic	-10.793
▁hokey	-10.793
hatred	-10.793
uttering	-10.793
▁aspirations	-10.7931
▁jolly	-10.7931
▁drink	-10.7931
▁robinson	-10.7931
▁flawless	-10.7931
▁interaction	-10.7931
▁midway	-10.7931
▁dupe	-10.7931
▁invest	-10.7931
▁verg	-10.7931
▁naught	-10.7931
▁glow	-10.7932
clutch	-10.7932
ateau	-10.7932
▁strangers	-10.7932
▁photo	-10.7936
jective	-10.7939
liners	-10.7941
▁barry	-10.7941
▁slog	-10.7944
loser	-10.7945
▁schm	-10.7945
▁tame	-10.7945
▁dopey	-10.7947
▁eng	-10.7949
▁jumbo	-10.795
rnier	-10.7951
▁analy	-10.7952
▁print	-10.7956
▁uncle	-10.7957
▁crafty	-10.7959
▁threaten	-10.7964
hen	-10.7964
▁ador	-10.7969
otted	-10.7971
▁fluffy	-10.7973
▁communicate	-10.7981
▁heat	-10.7983
▁95	-10.7985
▁prov	-10.7985
▁adequately	-10.7989
cz	-10.7993
▁van	-10.7994
▁carve	-10.7999
▁sticky	-10.7999
▁prom	-10.8002
▁induce	-10.8002
▁received	-10.8006
▁town	-10.8011
title	-10.8012
▁histrionics	-10.8012
▁appreciated	-10.8014
▁darkness	-10.8015
▁carrying	-10.8029
▁jet	-10.8029
rase	-10.8031
▁modesty	-10.8039
▁degrad	-10.8049
workshop	-10.8055
▁gan	-10.8059
▁rate	-10.8062
▁mire	-10.8066
uous	-10.807
▁manic	-10.8074
▁weav	-10.8087
imed	-10.8094
▁smugly	-10.8095
spinning	-10.8101
strung	-10.812
▁14	-10.8123
pic	-10.8139
▁lion	-10.8143
awareness	-10.8159
▁stunningly	-10.8168
▁rocky	-10.8169
rope	-10.8209
▁shower	-10.8212
ett	-10.8215
▁unfold	-10.8247
▁cub	-10.8252
lf	-10.8254
▁sna	-10.8257
ogue	-10.8259
gging	-10.8276
served	-10.8328
▁member	-10.8339
ndi	-10.8362
▁canon	-10.8365
hip	-10.8394
moto	-10.8421
▁stab	-10.8435
▁perm	-10.8436
▁hom	-10.8442
advised	-10.8451
▁expos	-10.8458
▁shap	-10.8474
▁margin	-10.8498
▁balanc	-10.8519
▁pri	-10.8531
▁surround	-10.8532
shift	-10.8537
week	-10.8537
developed	-10.8537
credit	-10.8538
cultural	-10.8538
examination	-10.8538
cool	-10.8538
human	-10.8538
dress	-10.8538
seeking	-10.8539
▁kie	-10.854
▁shak	-10.8541
▁accomplish	-10.8543
▁indulge	-10.8547
film	-10.8551
▁impress	-10.8552
drive	-10.8552
▁integrat	-10.8553
▁dismiss	-10.8555
▁decide	-10.8565
▁pulp	-10.8569
▁doc	-10.8572
▁sensu	-10.8587
▁hitchcock	-10.8593
▁possibilit	-10.8593
abbi	-10.8594
▁grit	-10.8595
igate	-10.8595
pounding	-10.8596
tfalls	-10.8596
▁abundant	-10.8596
▁applies	-10.8596
▁beloved	-10.8596
▁bollywood	-10.8596
▁buzz	-10.8596
▁calibrated	-10.8596
▁canadian	-10.8596
▁cardboard	-10.8596
▁circle	-10.8596
▁climax	-10.8596
▁cohesion	-10.8596
▁enervating	-10.8596
▁episodic	-10.8596
▁evoking	-10.8596
▁exasperating	-10.8596
▁exuberant	-10.8596
▁facile	-10.8596
▁feet	-10.8596
▁fondness	-10.8596
▁fontaine	-10.8596
▁griffith	-10.8596
▁hampered	-10.8596
▁hypocritical	-10.8596
▁imbue	-10.8596
▁insignificance	-10.8596
▁institution	-10.8596
▁louis	-10.8596
▁misanthropic	-10.8596
▁nebrida	-10.8596
▁nourishing	-10.8596
▁optimistic	-10.8596
▁pervasive	-10.8596
▁ramble	-10.8596
▁rigid	-10.8596
▁rodrigue	-10.8596
▁sanctimony	-10.8596
▁scruffy	-10.8596
▁smoochy	-10.8596
▁steady	-10.8596
▁suffocating	-10.8596
▁tawdry	-10.8596
▁telegraph	-10.8596
▁therapy	-10.8596
▁thornberry	-10.8596
▁ugliness	-10.8596
▁unbearable	-10.8596
▁giggle	-10.8596
▁opposite	-10.8596
▁rarity	-10.8596
▁schaef	-10.8596
▁smirk	-10.8596
▁updating	-10.8596
holic	-10.8596
▁disease	-10.8596
▁flee	-10.8596
icide	-10.8596
▁snore	-10.8596
▁trembl	-10.8596
▁dollar	-10.8596
▁fiend	-10.8596
▁blazing	-10.8596
▁comprehension	-10.8596
estim	-10.8596
▁bile	-10.8596
▁spade	-10.8596
bbing	-10.8596
▁hunk	-10.8596
▁interpretation	-10.8596
▁avant	-10.8596
▁retaliation	-10.8596
▁jaded	-10.8596
mongering	-10.8596
▁miscalculation	-10.8596
▁laborious	-10.8596
▁depression	-10.8597
liff	-10.8597
▁darling	-10.8597
▁columbi	-10.8597
▁throat	-10.8597
active	-10.8597
precedent	-10.8597
▁label	-10.8597
▁snail	-10.8597
▁morph	-10.8598
eparation	-10.8598
nominated	-10.8598
▁197	-10.8598
▁costner	-10.8599
▁pompous	-10.86
▁enact	-10.86
▁taut	-10.86
▁shrek	-10.86
▁deserving	-10.8601
▁afterthought	-10.8601
▁banality	-10.8602
▁forcefulness	-10.8602
▁intro	-10.8602
▁madness	-10.8602
▁simpleminded	-10.8603
▁gutless	-10.8604
▁brushes	-10.8604
izing	-10.8605
▁setups	-10.8605
▁pileup	-10.8605
▁downtown	-10.8605
▁ambiguity	-10.8606
▁brainless	-10.861
▁jani	-10.8611
▁cleaner	-10.8612
▁downward	-10.8613
▁asset	-10.8614
▁experimental	-10.8615
▁witness	-10.8616
raft	-10.8617
▁tug	-10.8617
▁vulnerable	-10.8618
▁stew	-10.8619
▁bio	-10.8622
▁weepy	-10.8624
▁exploiti	-10.8628
▁thinness	-10.8632
▁bli	-10.8634
▁sleeper	-10.8641
▁jan	-10.8641
▁worthless	-10.8643
▁smartest	-10.8655
▁recognized	-10.8656
▁richness	-10.8666
▁expertly	-10.8679
▁tread	-10.8685
▁dean	-10.8691
▁tripe	-10.8695
▁alienate	-10.8704
▁peculiarly	-10.8722
lar	-10.8723
▁lose	-10.8725
agi	-10.8727
tchy	-10.8728
▁pitched	-10.8735
▁loveable	-10.8747
▁stopp	-10.8747
▁num	-10.8801
rah	-10.8828
▁reveal	-10.8849
irk	-10.8853
▁surfe	-10.8873
iled	-10.8885
▁ide	-10.89
▁watered	-10.8924
▁shop	-10.8925
▁harm	-10.8931
inner	-10.8934
rotting	-10.8943
xed	-10.8943
▁collapse	-10.8955
▁aspire	-10.8964
lson	-10.8988
nova	-10.9004
anger	-10.9012
ronically	-10.9017
elling	-10.9026
fred	-10.9057
west	-10.9094
▁aware	-10.9125
ussi	-10.9128
▁spo	-10.9151
▁introduc	-10.9188
▁refer	-10.9191
gio	-10.9195
hard	-10.9211
core	-10.9248
front	-10.9251
envelop	-10.9251
foot	-10.9251
loving	-10.9251
century	-10.9251
effect	-10.9252
95	-10.9252
heavy	-10.9252
walk	-10.9252
adult	-10.9253
ology	-10.9253
moving	-10.9255
lapping	-10.9267
▁fes	-10.9272
▁involve	-10.9279
idget	-10.928
▁efficient	-10.9284
city	-10.9285
▁recover	-10.9288
critique	-10.9294
▁journalist	-10.9298
▁ol	-10.93
▁ensu	-10.93
▁brush	-10.9301
▁illustrat	-10.9301
searching	-10.9303
enchant	-10.9306
▁amateur	-10.9308
▁loyal	-10.9309
▁quali	-10.9309
▁opt	-10.931
busting	-10.931
destroying	-10.931
drenched	-10.931
glorification	-10.931
nurture	-10.931
promotion	-10.931
pyrotechnic	-10.931
riddled	-10.931
▁abomination	-10.931
▁actuary	-10.931
▁aftertaste	-10.931
▁amorality	-10.931
▁anticipated	-10.931
▁aplenty	-10.931
▁barrymore	-10.931
▁bloated	-10.931
▁bogdanovich	-10.931
▁brazen	-10.931
▁chekhov	-10.931
▁choreographed	-10.931
▁cinderella	-10.931
▁collateral	-10.931
▁competition	-10.931
▁counterpart	-10.931
▁delinquent	-10.931
▁departure	-10.931
▁desiccated	-10.931
▁diaries	-10.931
▁dilemma	-10.931
▁diplomacy	-10.931
▁drowsy	-10.931
▁educates	-10.931
▁equation	-10.931
▁ethereal	-10.931
▁frantic	-10.931
▁glib	-10.931
▁gloom	-10.931
▁impersonation	-10.931
▁inadvertent	-10.931
▁infomercial	-10.931
▁irwin	-10.931
▁kosashvili	-10.931
▁lulls	-10.931
▁lumbering	-10.931
▁odyssey	-10.931
▁pinocchio	-10.931
▁propaganda	-10.931
▁redundancy	-10.931
▁resolution	-10.931
▁restrictive	-10.931
▁rugrats	-10.931
▁satisfactory	-10.931
▁septic	-10.931
▁shaggy	-10.931
▁shiver	-10.931
▁speculation	-10.931
▁spellbinding	-10.931
▁squirm	-10.931
▁stoked	-10.931
▁suspend	-10.931
▁tatters	-10.931
▁testimony	-10.931
▁titular	-10.931
▁transcendence	-10.931
▁twaddle	-10.931
▁unconditional	-10.931
▁unpretentious	-10.931
▁wendigo	-10.931
▁whodunit	-10.931
▁wilco	-10.931
shattering	-10.931
▁combusti	-10.931
▁potshots	-10.931
▁ransack	-10.931
▁rollerball	-10.931
▁sibling	-10.931
compens	-10.931
▁burr	-10.931
▁chomp	-10.931
▁cook	-10.931
▁globe	-10.931
▁information	-10.931
▁stagy	-10.931
▁strand	-10.931
▁whimper	-10.931
▁valid	-10.931
-13	-10.931
biz	-10.931
▁carmen	-10.931
▁messiness	-10.931
▁relay	-10.931
▁ardent	-10.931
▁blonde	-10.931
▁river	-10.931
▁decor	-10.931
▁pursu	-10.931
▁patriot	-10.931
▁resort	-10.931
▁flame	-10.931
▁cataly	-10.931
▁fanatic	-10.931
▁outsiders	-10.9311
▁gere	-10.9311
▁poll	-10.9311
▁humbl	-10.9311
▁hustler	-10.9311
▁tolerance	-10.9311
▁heartening	-10.9311
▁flori	-10.9311
▁spookiness	-10.9311
▁operates	-10.9311
▁spiral	-10.9312
▁adorably	-10.9312
▁abyss	-10.9312
▁skewe	-10.9312
▁companionable	-10.9312
▁garner	-10.9312
▁unamusing	-10.9313
▁1970	-10.9313
▁phil	-10.9313
▁betrayal	-10.9313
▁22	-10.9314
▁monumental	-10.9314
▁sensationalism	-10.9314
▁detract	-10.9315
▁overproduced	-10.9315
▁carpe	-10.9316
▁crew	-10.9317
▁scooby	-10.9317
▁eric	-10.9318
▁dv	-10.9318
▁enabl	-10.9318
▁flabby	-10.9319
▁questionable	-10.9319
▁ensure	-10.932
▁cluelessness	-10.932
clam	-10.9322
▁preach	-10.9323
▁blah	-10.9323
▁scarier	-10.9323
▁unknown	-10.9324
▁artwork	-10.9325
enden	-10.9326
▁obstacles	-10.933
▁stupidity	-10.933
▁grinder	-10.933
▁slapp	-10.9331
▁heroic	-10.9332
▁terminally	-10.9333
▁misses	-10.9336
kable	-10.934
▁boomer	-10.934
▁bron	-10.9341
▁overwritten	-10.9343
pil	-10.9345
▁dullard	-10.9346
▁summertime	-10.9348
▁dear	-10.9349
▁refused	-10.9349
▁traveler	-10.935
▁ple	-10.9358
bling	-10.9358
else	-10.936
▁poster	-10.936
▁cheated	-10.9362
change	-10.9375
▁train	-10.9383
▁inevitably	-10.9385
▁asia	-10.9385
▁prose	-10.9387
▁forcefully	-10.9392
89	-10.9399
▁aids	-10.9411
▁eerily	-10.9413
illa	-10.9414
nstop	-10.9417
▁hitch	-10.9423
▁unh	-10.9434
▁neatly	-10.9434
▁hooting	-10.9435
▁rea	-10.9439
▁handsomely	-10.9446
▁bai	-10.9454
ender	-10.9463
▁kindness	-10.9464
maker	-10.9482
▁troubled	-10.9482
wheel	-10.9486
▁q	-10.9505
▁rut	-10.951
▁burning	-10.9517
tmu	-10.9533
▁cran	-10.9535
▁don	-10.9545
▁stronger	-10.9549
▁pan	-10.9565
anley	-10.9566
aking	-10.9583
▁mine	-10.9646
bang	-10.9664
lip	-10.9676
▁flaw	-10.9684
▁ye	-10.9687
▁hurr	-10.9691
▁convention	-10.9713
hair	-10.9734
pical	-10.9741
rton	-10.9748
▁mak	-10.9777
radic	-10.9812
▁doug	-10.9816
hei	-10.9836
plin	-10.9846
▁receiv	-10.9911
self	-10.9914
▁player	-10.9916
stable	-10.9942
▁forgiven	-10.995
▁shu	-10.9951
▁numb	-10.9966
clear	-10.9983
▁regi	-10.9994
beat	-11
forgettable	-11.0015
▁satisfy	-11.0015
meets	-11.0017
biograph	-11.0021
shaped	-11.0021
version	-11.0021
shoot	-11.0021
sequel	-11.0021
urban	-11.0021
winning	-11.0021
humor	-11.0022
ective	-11.0023
trick	-11.0023
▁literal	-11.0023
▁weigh	-11.0026
bear	-11.0031
▁ignore	-11.0061
scient	-11.0064
ritter	-11.0066
▁devote	-11.007
ique	-11.0073
dile	-11.0073
▁companion	-11.0076
mpulsive	-11.0077
simpl	-11.0078
▁colum	-11.0078
▁mourn	-11.0078
▁grip	-11.0078
▁pot	-11.0078
rills	-11.0079
▁seduc	-11.0079
rief	-11.0079
▁rejigger	-11.0079
#	-11.0079
conclusive	-11.0079
plicate	-11.0079
▁agenda	-11.0079
▁anachronistic	-11.0079
▁apparatus	-11.0079
▁bankrupt	-11.0079
▁basketball	-11.0079
▁bielinsky	-11.0079
▁bike	-11.0079
▁birot	-11.0079
▁blurry	-11.0079
▁boisterous	-11.0079
▁boozy	-11.0079
▁bumbling	-11.0079
▁california	-11.0079
▁captain	-11.0079
▁cathartic	-11.0079
▁cheesiest	-11.0079
▁chopsocky	-11.0079
▁civic	-11.0079
▁codswallop	-11.0079
▁complacency	-11.0079
▁condensed	-11.0079
▁confession	-11.0079
▁confined	-11.0079
▁cynicism	-11.0079
▁decrepit	-11.0079
▁dedication	-11.0079
▁denouement	-11.0079
▁egregious	-11.0079
▁electric	-11.0079
▁eyelids	-11.0079
▁fantasma	-11.0079
▁fondly	-11.0079
▁footnote	-11.0079
▁freighter	-11.0079
▁goodfellas	-11.0079
▁guillen	-11.0079
▁gunfight	-11.0079
▁hostile	-11.0079
▁hysterics	-11.0079
▁immediacy	-11.0079
▁immersed	-11.0079
▁inarticulate	-11.0079
▁indecent	-11.0079
▁infatuated	-11.0079
▁kalvert	-11.0079
▁liberal	-11.0079
▁liberties	-11.0079
▁macabre	-11.0079
▁malkovich	-11.0079
▁molested	-11.0079
▁paranoid	-11.0079
▁perdition	-11.0079
▁pinnacle	-11.0079
▁pizza	-11.0079
▁profanity	-11.0079
▁repetition	-11.0079
▁schumacher	-11.0079
▁shortcomings	-11.0079
▁sillier	-11.0079
▁storyteller	-11.0079
▁stultifying	-11.0079
▁subordinate	-11.0079
▁survivors	-11.0079
▁tendency	-11.0079
▁thirteen	-11.0079
▁travesty	-11.0079
▁unappealing	-11.0079
▁uninvolving	-11.0079
▁unnoticed	-11.0079
▁xxx	-11.0079
▁contender	-11.0079
▁corniest	-11.0079
▁denying	-11.0079
▁froth	-11.0079
▁gratefully	-11.0079
▁nonetheless	-11.0079
▁nutty	-11.0079
▁puberty	-11.0079
▁shimmering	-11.0079
▁tastelessness	-11.0079
▁tattoo	-11.0079
▁whatsoever	-11.0079
▁wistful	-11.0079
▁zombie	-11.0079
oscope	-11.0079
▁astray	-11.0079
▁healthy	-11.0079
▁mordant	-11.0079
▁semen	-11.0079
▁tailor	-11.0079
▁wretched	-11.0079
▁yield	-11.0079
▁relic	-11.0079
▁resident	-11.0079
▁anemic	-11.0079
▁luckiest	-11.0079
▁mamet	-11.0079
fluent	-11.0079
wann	-11.0079
ashamed	-11.0079
▁impossibly	-11.0079
▁beacon	-11.0079
▁paperbacks	-11.0079
▁lewis	-11.0079
▁unfa	-11.0079
▁natter	-11.0079
▁needlessly	-11.0079
▁tuned	-11.0079
▁stuffiest	-11.0079
▁blanket	-11.0079
▁task	-11.008
▁humility	-11.008
▁overdoing	-11.008
▁conned	-11.008
▁slash	-11.008
urgeon	-11.008
▁enchanting	-11.008
▁prism	-11.008
plate	-11.008
▁revisionist	-11.008
▁mendes	-11.008
▁anonym	-11.008
▁jerking	-11.008
ludes	-11.008
▁fabricated	-11.008
empti	-11.008
▁awry	-11.008
▁dredge	-11.008
▁fellowship	-11.008
▁heavyweight	-11.008
▁criticism	-11.008
wave	-11.008
▁cackles	-11.0081
▁acknowledg	-11.0081
bble	-11.0081
▁lug	-11.0081
▁heft	-11.0082
▁94	-11.0082
▁defiant	-11.0082
▁grownups	-11.0082
▁danger	-11.0082
▁cohere	-11.0082
▁welt	-11.0082
▁tapping	-11.0082
▁narration	-11.0083
▁float	-11.0083
▁plast	-11.0084
▁21	-11.0084
▁fenc	-11.0084
▁lowbrow	-11.0084
▁pornograph	-11.0084
▁recognizable	-11.0085
▁courageous	-11.0085
▁diary	-11.0085
▁household	-11.0085
▁bluescreen	-11.0085
▁vibe	-11.0085
▁gul	-11.0086
▁clock	-11.0086
▁kath	-11.0086
▁overflowing	-11.0087
▁palat	-11.0087
▁spread	-11.0088
▁underdone	-11.0088
▁gutter	-11.0089
▁overladen	-11.009
▁witnesses	-11.009
▁radi	-11.0091
aux	-11.0091
▁brutality	-11.0091
▁dearth	-11.0092
▁modernize	-11.0093
▁joie	-11.0094
raped	-11.0094
▁wasting	-11.0097
▁laughably	-11.0098
▁bouncy	-11.0099
▁creator	-11.01
▁shadowy	-11.01
▁girlfriend	-11.0101
▁rug	-11.0101
▁loopy	-11.0102
▁rehashes	-11.0103
organ	-11.0103
▁gimmicky	-11.0104
▁supply	-11.0104
▁disc	-11.0106
▁fragmented	-11.0108
mell	-11.011
▁embracing	-11.011
blooded	-11.0112
▁wayward	-11.0115
▁denied	-11.0115
▁undo	-11.0117
▁perfection	-11.0117
▁whining	-11.0119
▁section	-11.012
▁repeatedly	-11.0122
wildlife	-11.0123
▁savory	-11.0124
▁capr	-11.0125
▁impo	-11.0125
ewing	-11.0127
▁colli	-11.0128
▁map	-11.013
▁distracted	-11.0132
▁upscale	-11.014
▁efficiently	-11.014
▁savagely	-11.015
droppingly	-11.0154
▁subtler	-11.0155
▁spine	-11.0158
▁comically	-11.0159
▁atrociously	-11.0159
▁stark	-11.0166
▁arresting	-11.0167
rath	-11.0171
▁unable	-11.0177
inth	-11.0183
erial	-11.0186
▁succeeded	-11.0188
▁rapt	-11.0193
▁goth	-11.0201
▁stein	-11.0206
▁lengthy	-11.0208
▁staggering	-11.0228
▁establishe	-11.0237
uation	-11.0244
▁rif	-11.0268
holds	-11.0275
arat	-11.0278
▁jane	-11.0305
▁scari	-11.0327
▁para	-11.0345
rent	-11.0345
▁yorker	-11.0356
arney	-11.0385
tiate	-11.0387
10	-11.039
creation	-11.042
▁worrie	-11.0493
▁demonstrat	-11.0551
▁issue	-11.0562
▁nov	-11.0567
▁gag	-11.0593
▁har	-11.0681
defined	-11.0746
▁assum	-11.0777
rge	-11.0779
mouth	-11.0812
blown	-11.0845
happy	-11.0848
▁precise	-11.0852
switch	-11.0853
education	-11.0854
twenty	-11.0854
sucker	-11.0854
guess	-11.0854
producer	-11.0854
erotic	-11.0854
market	-11.0854
constructed	-11.0854
science	-11.0855
crime	-11.0855
30	-11.0855
camera	-11.0855
19	-11.0856
▁unintentional	-11.0857
▁crea	-11.0859
▁complain	-11.0859
shot	-11.0864
cover	-11.0868
▁guarantee	-11.0881
conceive	-11.0881
▁gimmick	-11.0886
▁suppl	-11.0886
ments	-11.0886
▁economic	-11.0903
▁sensation	-11.0903
▁shar	-11.0905
▁hug	-11.0905
▁plague	-11.0905
warming	-11.0906
▁robust	-11.0907
▁quirki	-11.0908
▁pacin	-11.091
▁smi	-11.0911
▁legend	-11.0911
illiam	-11.0912
▁temp	-11.0912
▁sorrow	-11.0912
brid	-11.0912
▁ruthless	-11.0913
▁venice	-11.0913
rudge	-11.0913
▁participat	-11.0913
▁prominent	-11.0913
▁rampant	-11.0913
▁unsurprising	-11.0913
caliber	-11.0913
clenching	-11.0913
kilter	-11.0913
limina	-11.0913
oque	-11.0913
underappreciated	-11.0913
zhuang	-11.0913
▁accompan	-11.0913
▁anywhere	-11.0913
▁austerity	-11.0913
▁avarice	-11.0913
▁campaign	-11.0913
▁captivates	-11.0913
▁celebrity	-11.0913
▁claptrap	-11.0913
▁climate	-11.0913
▁constraints	-11.0913
▁controversial	-11.0913
▁credulous	-11.0913
▁destroy	-11.0913
▁destruction	-11.0913
▁disabilities	-11.0913
▁disorientated	-11.0913
▁ebullient	-11.0913
▁echelons	-11.0913
▁enchantment	-11.0913
▁ennui	-11.0913
▁enriched	-11.0913
▁everlasting	-11.0913
▁exuberance	-11.0913
▁feisty	-11.0913
▁ferrara	-11.0913
▁fiascos	-11.0913
▁flagrantly	-11.0913
▁geriatric	-11.0913
▁happily	-11.0913
▁inexperienced	-11.0913
▁infantile	-11.0913
▁infusion	-11.0913
▁ingenuity	-11.0913
▁invasion	-11.0913
▁margarita	-11.0913
▁maturity	-11.0913
▁mawkish	-11.0913
▁messenger	-11.0913
▁method	-11.0913
▁misplaced	-11.0913
▁molestation	-11.0913
▁monsoon	-11.0913
▁nudity	-11.0913
▁oedekerk	-11.0913
▁opportunities	-11.0913
▁partnership	-11.0913
▁plucking	-11.0913
▁polite	-11.0913
▁pregnan	-11.0913
▁prevails	-11.0913
▁reassure	-11.0913
▁redolent	-11.0913
▁regalia	-11.0913
▁reinforcement	-11.0913
▁relegated	-11.0913
▁reliance	-11.0913
▁repulsive	-11.0913
▁resurrecti	-11.0913
▁revisiting	-11.0913
▁rhapsodize	-11.0913
▁riveted	-11.0913
▁robotically	-11.0913
▁scarifying	-11.0913
▁sneering	-11.0913
▁stack	-11.0913
▁stumble	-11.0913
▁survivable	-11.0913
▁tunney	-11.0913
▁undisciplined	-11.0913
▁victories	-11.0913
▁vulnerability	-11.0913
▁waydowntown	-11.0913
▁yawning	-11.0913
▁durable	-11.0913
▁feardotcom	-11.0913
▁futile	-11.0913
▁gusto	-11.0913
▁holofcen	-11.0913
▁lustrous	-11.0913
▁potato	-11.0913
▁prank	-11.0913
▁pushiness	-11.0913
▁reflective	-11.0913
▁reverent	-11.0913
▁skull	-11.0913
▁surve	-11.0913
▁arduous	-11.0913
▁boost	-11.0913
▁creek	-11.0913
▁turkey	-11.0913
▁heritage	-11.0913
▁putrid	-11.0913
▁swift	-11.0913
synching	-11.0913
▁gaze	-11.0913
▁penc	-11.0913
▁crypt	-11.0913
▁thud	-11.0913
▁alice	-11.0913
▁sharpener	-11.0913
▁fees	-11.0913
▁orbit	-11.0913
poon	-11.0913
▁kilt	-11.0913
▁youngsters	-11.0913
▁foster	-11.0913
▁bolster	-11.0913
▁nicol	-11.0913
▁narc	-11.0913
▁initial	-11.0913
▁debr	-11.0913
▁outdated	-11.0913
▁cocktail	-11.0913
▁indoor	-11.0913
▁showgirls	-11.0913
▁contemplation	-11.0913
▁serials	-11.0913
diminish	-11.0913
▁clone	-11.0913
▁continuation	-11.0913
▁seductive	-11.0913
▁folly	-11.0913
dnes	-11.0913
▁consigned	-11.0913
guard	-11.0913
▁kittenish	-11.0913
▁unexplainable	-11.0913
▁importance	-11.0913
▁droning	-11.0914
▁exchange	-11.0914
▁morbidity	-11.0914
▁mask	-11.0914
shall	-11.0914
▁zha	-11.0914
▁liability	-11.0914
▁prepare	-11.0914
▁boundaries	-11.0914
▁flight	-11.0915
▁spiteful	-11.0915
▁esc	-11.0916
sphe	-11.0916
▁option	-11.0917
shion	-11.0917
▁crystal	-11.0917
▁unrealized	-11.0917
▁pap	-11.0917
▁bowel	-11.0917
▁theatre	-11.0917
▁proposal	-11.0918
▁fringe	-11.0918
▁intent	-11.0918
▁brat	-11.0919
▁crash	-11.092
▁refreshes	-11.092
▁edition	-11.092
▁seld	-11.092
calorie	-11.092
▁forcing	-11.0921
▁fling	-11.0922
▁letdown	-11.0922
▁barn	-11.0924
▁pickup	-11.0924
▁accomplishes	-11.0924
▁code	-11.0925
icious	-11.0925
ption	-11.0925
▁impro	-11.0925
▁orgasm	-11.0926
▁bliss	-11.0928
▁beaten	-11.093
▁furiously	-11.093
▁moan	-11.093
▁purposeless	-11.093
▁triteness	-11.0931
▁showdown	-11.0931
▁realistically	-11.0932
▁spiffy	-11.0933
▁authentically	-11.0933
▁maid	-11.0933
▁vary	-11.0934
▁moon	-11.0938
▁wonderous	-11.0939
tag	-11.094
▁anyway	-11.094
▁reflection	-11.0941
▁biased	-11.0941
▁refreshed	-11.0945
▁mug	-11.0947
▁puff	-11.0947
best	-11.0947
occupation	-11.0947
▁schmaltzy	-11.0949
▁north	-11.0951
▁flatter	-11.0953
▁spiced	-11.0956
▁destiny	-11.0957
▁tackle	-11.0958
▁prep	-11.0961
▁valiantly	-11.0964
▁sonny	-11.0965
▁sham	-11.0966
religious	-11.0967
▁humanism	-11.0968
▁losses	-11.0972
entin	-11.0975
▁gong	-11.0977
▁nine	-11.098
osi	-11.0981
bian	-11.0981
▁jacque	-11.0985
▁goers	-11.1016
▁dullness	-11.1042
ripper	-11.1045
▁creeping	-11.1047
▁believer	-11.1051
quint	-11.1086
ervent	-11.11
ood	-11.1105
ffe	-11.1129
▁conc	-11.1165
▁trot	-11.1167
▁pleas	-11.1172
tail	-11.1251
▁subj	-11.1338
▁warn	-11.1345
rried	-11.1355
▁addict	-11.137
▁rob	-11.1396
▁demand	-11.1403
coat	-11.1408
twe	-11.1409
azzle	-11.1416
▁interme	-11.1465
▁spli	-11.1565
arned	-11.1584
body	-11.1634
row	-11.1635
tiring	-11.1642
pion	-11.1671
▁depend	-11.1707
▁choos	-11.1742
▁fac	-11.1757
▁astonish	-11.1757
▁dash	-11.1757
flop	-11.1762
speak	-11.1763
space	-11.1764
pleasure	-11.1764
point	-11.1764
deep	-11.1764
water	-11.1764
depth	-11.1764
feeling	-11.1764
▁valiant	-11.1765
winner	-11.1767
▁threat	-11.177
▁deni	-11.1771
▁assembl	-11.178
laris	-11.1788
▁recycle	-11.1791
wise	-11.1792
▁loop	-11.1795
▁jealous	-11.1795
imps	-11.1806
flowing	-11.1813
▁israel	-11.1813
uddle	-11.1818
▁tax	-11.1818
▁ridicul	-11.1819
▁odor	-11.1819
▁corrupt	-11.1819
portions	-11.182
▁wrap	-11.182
▁identi	-11.1821
mistak	-11.1821
leigh	-11.1822
apocalyp	-11.1822
▁disagree	-11.1822
▁infuriating	-11.1822
▁lethargic	-11.1822
auspicious	-11.1822
burningly	-11.1822
lunchers	-11.1822
torium	-11.1822
tunnel	-11.1822
æ	-11.1822
▁accuracy	-11.1822
▁acquire	-11.1822
▁acumen	-11.1822
▁admirably	-11.1822
▁aficionados	-11.1822
▁annoyed	-11.1822
▁anomie	-11.1822
▁antitrust	-11.1822
▁appointed	-11.1822
▁available	-11.1822
▁bravado	-11.1822
▁camaraderie	-11.1822
▁captivated	-11.1822
▁commend	-11.1822
▁concocted	-11.1822
▁convoluted	-11.1822
▁convolution	-11.1822
▁craftsmen	-11.1822
▁cultivation	-11.1822
▁decibel	-11.1822
▁democracie	-11.1822
▁derailed	-11.1822
▁disturbance	-11.1822
▁documentarian	-11.1822
▁eloquence	-11.1822
▁elusive	-11.1822
▁employment	-11.1822
▁enthusiasts	-11.1822
▁everywhere	-11.1822
▁evidence	-11.1822
▁exceeds	-11.1822
▁feeble	-11.1822
▁fetish	-11.1822
▁fluke	-11.1822
▁frissons	-11.1822
▁gamble	-11.1822
▁glimmer	-11.1822
▁goddammit	-11.1822
▁gondry	-11.1822
▁grueling	-11.1822
▁harangu	-11.1822
▁harbor	-11.1822
▁hindered	-11.1822
▁hodgepodge	-11.1822
▁improbability	-11.1822
▁injuries	-11.1822
▁irrelevancy	-11.1822
▁kitsch	-11.1822
▁knockabout	-11.1822
▁landmark	-11.1822
▁languid	-11.1822
▁languishing	-11.1822
▁leash	-11.1822
▁libertine	-11.1822
▁maneuvers	-11.1822
▁manifesto	-11.1822
▁maxim	-11.1822
▁mcgrath	-11.1822
▁memorial	-11.1822
▁milestones	-11.1822
▁milquetoast	-11.1822
▁miraculous	-11.1822
▁misuse	-11.1822
▁negligible	-11.1822
▁newfangled	-11.1822
▁objectivity	-11.1822
▁perpetual	-11.1822
▁phoniness	-11.1822
▁polemic	-11.1822
▁principles	-11.1822
▁punishment	-11.1822
▁quandaries	-11.1822
▁raindrop	-11.1822
▁raucously	-11.1822
▁reconstruction	-11.1822
▁reprieve	-11.1822
▁responsibility	-11.1822
▁revitalize	-11.1822
▁revive	-11.1822
▁schizophrenia	-11.1822
▁selection	-11.1822
▁sewage	-11.1822
▁shudder	-11.1822
▁sizzle	-11.1822
▁stamp	-11.1822
▁stellar	-11.1822
▁strenuous	-11.1822
▁subzero	-11.1822
▁symbolism	-11.1822
▁tearjerker	-11.1822
▁thunderstorms	-11.1822
▁unadorned	-11.1822
▁uncreative	-11.1822
▁unfilmable	-11.1822
▁unrecoverable	-11.1822
▁unsubtle	-11.1822
▁uptight	-11.1822
▁urgency	-11.1822
▁vacant	-11.1822
▁veracity	-11.1822
▁waterlogged	-11.1822
▁burrito	-11.1822
▁dumped	-11.1822
▁goofiness	-11.1822
▁indig	-11.1822
▁jfk	-11.1822
▁pawn	-11.1822
▁plumb	-11.1822
▁tagline	-11.1822
▁topple	-11.1822
▁unifying	-11.1822
▁vivre	-11.1822
smiling	-11.1822
▁prophe	-11.1822
▁parrot	-11.1822
▁testud	-11.1822
▁ditty	-11.1822
▁finch	-11.1822
▁goofiest	-11.1822
▁psychedeli	-11.1822
▁swedish	-11.1822
▁alienating	-11.1822
▁confrontations	-11.1822
▁pubescent	-11.1822
▁monday	-11.1822
▁mistress	-11.1822
▁register	-11.1822
▁sassy	-11.1822
▁entity	-11.1822
wrote	-11.1822
▁overworked	-11.1822
▁curse	-11.1822
▁leftovers	-11.1822
▁pumpkin	-11.1822
▁reno	-11.1822
▁undertone	-11.1822
▁feed	-11.1822
▁pipeline	-11.1822
▁quas	-11.1822
broke	-11.1822
▁stalls	-11.1822
▁limb	-11.1822
▁painterly	-11.1822
▁frightfest	-11.1822
▁bush	-11.1822
▁lyricism	-11.1822
▁companionship	-11.1822
▁attend	-11.1823
wacky	-11.1823
▁multiplex	-11.1823
▁defiance	-11.1823
▁discordant	-11.1823
congratulation	-11.1823
trom	-11.1823
jaunt	-11.1823
▁waltz	-11.1823
▁padded	-11.1823
▁fraction	-11.1823
▁vacu	-11.1823
▁freddie	-11.1823
▁paean	-11.1823
▁discussion	-11.1823
▁orgy	-11.1824
▁terrorism	-11.1824
▁corruption	-11.1824
▁leavened	-11.1824
▁latin	-11.1824
▁squashed	-11.1824
▁exude	-11.1824
gency	-11.1825
▁flavorful	-11.1825
▁navel	-11.1825
▁jostl	-11.1825
▁sweetheart	-11.1825
▁hoary	-11.1826
elod	-11.1826
▁arra	-11.1826
▁peas	-11.1826
▁annals	-11.1826
▁brainpower	-11.1826
▁penchant	-11.1827
▁zingers	-11.1827
shod	-11.1828
▁digest	-11.1828
▁shameful	-11.1828
▁jean	-11.1828
▁didactic	-11.1829
eates	-11.183
▁israeli	-11.183
▁junkie	-11.1831
▁cure	-11.1832
▁devotees	-11.1833
▁drab	-11.1833
▁claw	-11.1833
▁serviceable	-11.1834
▁visionary	-11.1834
▁mob	-11.1836
▁timelessness	-11.1836
▁dimness	-11.1836
▁sadistic	-11.1837
letta	-11.1838
▁goose	-11.1839
▁bubble	-11.1839
addam	-11.1841
▁reside	-11.1846
▁mistaken	-11.1847
▁overwhelmed	-11.1849
▁bust	-11.1849
▁impost	-11.185
▁dope	-11.185
▁italicized	-11.1851
▁workplace	-11.1851
▁letter	-11.1851
▁thoughtless	-11.1853
▁helpings	-11.1853
▁teach	-11.1853
sustained	-11.1855
ancy	-11.1855
▁luster	-11.1861
▁baran	-11.1862
▁strangeness	-11.1864
▁illness	-11.1867
estion	-11.1867
▁archive	-11.1867
▁chou	-11.1877
▁integrated	-11.1881
▁frontal	-11.1882
▁progresse	-11.1884
▁vu	-11.1888
▁tall	-11.1889
▁chair	-11.1889
▁sung	-11.1894
▁plunge	-11.1902
pete	-11.1921
fish	-11.1943
mock	-11.1948
▁kidnapp	-11.1964
▁refus	-11.1981
▁divi	-11.2015
fortun	-11.2033
ago	-11.2133
▁surrealis	-11.2136
▁sl	-11.2143
lace	-11.2145
ffle	-11.2162
▁reaffirm	-11.2176
▁pell	-11.2197
▁suitabl	-11.2226
ipped	-11.2234
▁critic	-11.231
mmy	-11.2406
american	-11.2407
claud	-11.2413
▁shadow	-11.2437
▁instinct	-11.2467
▁thumb	-11.2468
▁device	-11.2471
▁plac	-11.2515
▁stagger	-11.2636
ré	-11.2638
▁tolera	-11.2652
▁generat	-11.27
ieved	-11.272
blood	-11.2721
▁plung	-11.2733
▁exten	-11.2739
tri	-11.2744
felt	-11.2757
▁absorb	-11.2758
claim	-11.2763
sophomoric	-11.2763
pop	-11.2763
executed	-11.2763
shelf	-11.2763
exploitation	-11.2763
assured	-11.2764
attractive	-11.2764
figures	-11.2764
wife	-11.2764
sports	-11.2764
adventure	-11.2764
third	-11.2765
▁repeated	-11.2765
immi	-11.2771
porate	-11.2771
▁simp	-11.2773
▁corn	-11.2779
▁clin	-11.2788
▁italicize	-11.2789
▁confuse	-11.279
▁ruin	-11.2809
▁gene	-11.281
tates	-11.2812
▁sprin	-11.2814
piration	-11.2816
rida	-11.2816
▁reckless	-11.2817
ullets	-11.2818
▁poet	-11.2818
enstein	-11.2818
▁griev	-11.2819
▁collect	-11.2819
▁activ	-11.282
▁undergrad	-11.282
dependence	-11.2821
leged	-11.2821
bute	-11.2821
▁pump	-11.2821
▁pub	-11.2822
▁exhausti	-11.2822
brainer	-11.2822
flung	-11.2822
ibility	-11.2822
inclusive	-11.2822
octane	-11.2822
preservation	-11.2822
satisfaction	-11.2822
▁affable	-11.2822
▁afghan	-11.2822
▁amazement	-11.2822
▁ambivalen	-11.2822
▁amnesiac	-11.2822
▁appreciation	-11.2822
▁argento	-11.2822
▁ballplayer	-11.2822
▁bergman	-11.2822
▁bludgeoning	-11.2822
▁bluff	-11.2822
▁bourgeois	-11.2822
▁cardiac	-11.2822
▁caretakers	-11.2822
▁celebratory	-11.2822
▁cheesier	-11.2822
▁chimes	-11.2822
▁climb	-11.2822
▁competence	-11.2822
▁curmudgeon	-11.2822
▁davies	-11.2822
▁demise	-11.2822
▁denzel	-11.2822
▁devastated	-11.2822
▁diabolical	-11.2822
▁disastrous	-11.2822
▁disconnects	-11.2822
▁disdain	-11.2822
▁downhill	-11.2822
▁drips	-11.2822
▁ecological	-11.2822
▁ecstasy	-11.2822
▁epiphany	-11.2822
▁estranged	-11.2822
▁exhausted	-11.2822
▁explain	-11.2822
▁extremist	-11.2822
▁fantasia	-11.2822
▁flinching	-11.2822
▁freakshow	-11.2822
▁funniness	-11.2822
▁grandkids	-11.2822
▁gremlins	-11.2822
▁grumble	-11.2822
▁heavily	-11.2822
▁hennings	-11.2822
▁horrendously	-11.2822
▁ignite	-11.2822
▁incident	-11.2822
▁insignificant	-11.2822
▁instructive	-11.2822
▁insufferable	-11.2822
▁interrogation	-11.2822
▁irresponsible	-11.2822
▁juxtaposition	-11.2822
▁kosminsky	-11.2822
▁ladder	-11.2822
▁license	-11.2822
▁lobotomy	-11.2822
▁lucratively	-11.2822
▁muzak	-11.2822
▁métier	-11.2822
▁naïveté	-11.2822
▁nervy	-11.2822
▁obligation	-11.2822
▁omni	-11.2822
▁orchestrated	-11.2822
▁panoramic	-11.2822
▁perception	-11.2822
▁persuasive	-11.2822
▁phlegmatic	-11.2822
▁plateau	-11.2822
▁pleasuring	-11.2822
▁proficiency	-11.2822
▁prostitute	-11.2822
▁queasy	-11.2822
▁reception	-11.2822
▁relevance	-11.2822
▁rembrandt	-11.2822
▁revulsion	-11.2822
▁runteldat	-11.2822
▁shainberg	-11.2822
▁shoplifts	-11.2822
▁silence	-11.2822
▁snooze	-11.2822
▁spectator	-11.2822
▁strategi	-11.2822
▁subgenre	-11.2822
▁sustenance	-11.2822
▁testosterone	-11.2822
▁transgressive	-11.2822
▁tumbleweeds	-11.2822
▁uninhibited	-11.2822
▁unknowable	-11.2822
▁unmotivated	-11.2822
▁unsuccessful	-11.2822
▁vacation	-11.2822
▁veneer	-11.2822
▁veteran	-11.2822
▁weaponry	-11.2822
▁weasels	-11.2822
▁windtalkers	-11.2822
▁banderas	-11.2822
▁cheatfully	-11.2822
▁chump	-11.2822
▁craig	-11.2822
▁earplugs	-11.2822
▁homosexual	-11.2822
▁sufficient	-11.2822
▁tumult	-11.2822
▁utiliz	-11.2822
advertis	-11.2822
hindler	-11.2822
▁astron	-11.2822
▁dismay	-11.2822
▁flag	-11.2822
▁salvage	-11.2822
▁seamless	-11.2822
▁segal	-11.2822
▁muddy	-11.2822
▁shockwaves	-11.2822
▁silent	-11.2822
baf	-11.2822
lensed	-11.2822
▁bolero	-11.2822
▁mystical	-11.2822
cano	-11.2822
▁fudge	-11.2822
▁menace	-11.2822
▁marquis	-11.2822
▁facetious	-11.2822
▁graduated	-11.2822
▁toothless	-11.2822
▁ungainly	-11.2822
▁overplayed	-11.2822
▁anymore	-11.2822
▁magn	-11.2822
▁choke	-11.2822
minous	-11.2822
▁gig	-11.2822
hobbled	-11.2822
▁pillages	-11.2822
▁nausea	-11.2822
▁meara	-11.2822
▁multilayered	-11.2822
▁unholy	-11.2822
hmal	-11.2822
▁investigate	-11.2822
▁contemptible	-11.2822
▁downsizing	-11.2822
▁sedate	-11.2822
▁tunes	-11.2822
iaros	-11.2822
▁contribute	-11.2822
▁faltering	-11.2822
letis	-11.2822
▁tolerable	-11.2822
▁irreveren	-11.2822
▁organiz	-11.2822
▁lovabl	-11.2822
▁macdowell	-11.2822
▁berk	-11.2823
▁bratty	-11.2823
▁3000	-11.2823
▁noteworthy	-11.2823
▁ripening	-11.2823
▁ignorant	-11.2823
▁1980	-11.2823
▁grayish	-11.2823
▁ops	-11.2823
▁placid	-11.2823
▁charade	-11.2823
▁psychotic	-11.2823
▁yard	-11.2824
terior	-11.2824
geek	-11.2824
▁scandalous	-11.2824
▁signals	-11.2824
▁lake	-11.2824
▁cleavage	-11.2824
empower	-11.2824
▁rocket	-11.2825
▁assassination	-11.2825
▁odorous	-11.2825
▁tickles	-11.2825
▁diversity	-11.2825
most	-11.2825
▁throwback	-11.2825
uisin	-11.2826
▁torment	-11.2826
▁adorable	-11.2826
▁cheapened	-11.2827
▁batt	-11.2827
▁indication	-11.2828
▁exception	-11.2828
▁population	-11.2828
▁gobble	-11.2828
reet	-11.2828
▁courageousness	-11.2828
▁diner	-11.2829
▁absurdist	-11.2829
ulent	-11.2829
▁cloud	-11.283
▁unhappy	-11.283
wiel	-11.2831
▁humanizing	-11.2831
▁commercialism	-11.2831
▁erotically	-11.2831
▁allusions	-11.2832
▁overblown	-11.2832
▁25	-11.2832
▁dreamlike	-11.2833
▁economical	-11.2833
▁decisive	-11.2834
▁handling	-11.2835
▁twin	-11.2835
▁lynch	-11.2836
▁brio	-11.2836
nnie	-11.2836
▁unturned	-11.2836
▁lumpen	-11.2836
▁princess	-11.2836
▁mishandle	-11.2836
▁highway	-11.2836
yac	-11.2837
▁sexist	-11.2837
▁raf	-11.2837
▁liar	-11.2837
angled	-11.2837
▁aggressiveness	-11.2837
▁eagerness	-11.2837
etto	-11.2838
▁superf	-11.2838
▁slob	-11.2839
▁dolls	-11.2839
▁squareness	-11.2839
▁sexuality	-11.284
▁block	-11.2842
▁overview	-11.2842
dependent	-11.2843
kled	-11.2844
▁mib	-11.2845
ormon	-11.2848
aleck	-11.285
driving	-11.2851
▁withered	-11.2856
▁trial	-11.2858
▁respite	-11.2859
ripe	-11.2859
▁familiarity	-11.2859
37	-11.2869
pant	-11.2869
icket	-11.2871
▁coolness	-11.2888
mira	-11.2911
kept	-11.2918
▁embod	-11.2925
▁misunderst	-11.2926
nex	-11.2957
▁bounc	-11.2971
aunch	-11.2979
fueled	-11.3003
▁readi	-11.3015
col	-11.3031
▁emerg	-11.3045
▁espi	-11.3068
artificiality	-11.3127
▁permit	-11.3154
utes	-11.3203
▁middl	-11.3259
dolph	-11.326
▁uncha	-11.3267
▁clinical	-11.3363
iving	-11.3372
▁cuba	-11.3377
▁undergo	-11.3437
▁chill	-11.3459
▁lyn	-11.3485
pless	-11.3498
hopp	-11.3523
▁bestow	-11.3529
▁celebrate	-11.3547
nkle	-11.3553
▁athlete	-11.3574
▁manag	-11.361
▁establish	-11.3619
ripping	-11.3625
▁femini	-11.3637
metal	-11.3694
posed	-11.3752
soaked	-11.379
▁argentin	-11.3796
▁refresh	-11.3816
heart	-11.3832
produced	-11.3866
you	-11.3867
▁popula	-11.3869
original	-11.3869
▁haunt	-11.3869
▁endear	-11.3869
weight	-11.387
▁ignor	-11.387
▁disguis	-11.3872
section	-11.3873
▁meander	-11.3873
hungry	-11.3874
profile	-11.3874
ghetto	-11.3874
dancing	-11.3874
realistic	-11.3874
innocence	-11.3874
blade	-11.3875
laughter	-11.3875
cliched	-11.3875
chilling	-11.3875
above	-11.3875
woman	-11.3875
hollywood	-11.3875
dvd	-11.3876
believe	-11.3876
▁maddening	-11.3877
high	-11.3877
serious	-11.3877
wide	-11.3878
corporate	-11.3884
lady	-11.3886
▁fami	-11.3889
▁fragment	-11.389
law	-11.3891
ota	-11.3896
jar	-11.3905
▁spiff	-11.3906
▁sensitivit	-11.3906
▁futur	-11.3914
▁prince	-11.3918
▁megaplex	-11.3923
llusion	-11.3923
▁enforce	-11.3925
▁solo	-11.3925
▁moth	-11.3925
uces	-11.3926
▁indicati	-11.3926
▁cleav	-11.393
▁sophomor	-11.393
▁auteu	-11.3931
▁discord	-11.3931
▁distaste	-11.3932
ooky	-11.3932
disput	-11.3933
▁architect	-11.3933
▁neglect	-11.3933
▁publish	-11.3933
amura	-11.3933
feeder	-11.3933
niversa	-11.3933
ockumentary	-11.3933
pressible	-11.3933
responsibilities	-11.3933
▁451	-11.3933
▁abhorrent	-11.3933
▁advance	-11.3933
▁advice	-11.3933
▁agreeably	-11.3933
▁ambrose	-11.3933
▁annoyance	-11.3933
▁appetite	-11.3933
▁appetiz	-11.3933
▁aristocrat	-11.3933
▁arrangements	-11.3933
▁arrogant	-11.3933
▁atrocities	-11.3933
▁autopsy	-11.3933
▁bloodstream	-11.3933
▁bouquet	-11.3933
▁bravura	-11.3933
▁catapulting	-11.3933
▁centuries	-11.3933
▁certified	-11.3933
▁chocolate	-11.3933
▁choppiness	-11.3933
▁chronicle	-11.3933
▁clients	-11.3933
▁compatible	-11.3933
▁compendium	-11.3933
▁condescension	-11.3933
▁consummate	-11.3933
▁contriving	-11.3933
▁crescendo	-11.3933
▁crooks	-11.3933
▁culkin	-11.3933
▁dawdle	-11.3933
▁decay	-11.3933
▁decency	-11.3933
▁dedicated	-11.3933
▁deflated	-11.3933
▁desirable	-11.3933
▁despicable	-11.3933
▁devastation	-11.3933
▁devotion	-11.3933
▁disbelief	-11.3933
▁disingenuous	-11.3933
▁dispassionate	-11.3933
▁dramaturgy	-11.3933
▁elder	-11.3933
▁entranced	-11.3933
▁evocation	-11.3933
▁evolution	-11.3933
▁exasperated	-11.3933
▁follies	-11.3933
▁freud	-11.3933
▁gesture	-11.3933
▁goggles	-11.3933
▁grandparents	-11.3933
▁guru	-11.3933
▁hiatus	-11.3933
▁hilary	-11.3933
▁hooliganism	-11.3933
▁hospital	-11.3933
▁humdrum	-11.3933
▁imaginable	-11.3933
▁imitator	-11.3933
▁immaculate	-11.3933
▁incapable	-11.3933
▁indictment	-11.3933
▁inexcusable	-11.3933
▁ingratiating	-11.3933
▁insufferably	-11.3933
▁invigorating	-11.3933
▁invincible	-11.3933
▁jagjit	-11.3933
▁jeff	-11.3933
▁labyrinthine	-11.3933
▁lazier	-11.3933
▁laziest	-11.3933
▁loquacious	-11.3933
▁luminous	-11.3933
▁malarkey	-11.3933
▁matron	-11.3933
▁memento	-11.3933
▁misconstrued	-11.3933
▁mishmash	-11.3933
▁monologue	-11.3933
▁monotone	-11.3933
▁nincompoop	-11.3933
▁nonchalant	-11.3933
▁optimism	-11.3933
▁orchestrating	-11.3933
▁outweigh	-11.3933
▁overstays	-11.3933
▁patronizing	-11.3933
▁pedestal	-11.3933
▁precocious	-11.3933
▁prefabricated	-11.3933
▁pristine	-11.3933
▁prologue	-11.3933
▁releasing	-11.3933
▁reprehensible	-11.3933
▁resentment	-11.3933
▁ribcage	-11.3933
▁romanticization	-11.3933
▁sanguine	-11.3933
▁saucy	-11.3933
▁schizo	-11.3933
▁scrutiny	-11.3933
▁sexpot	-11.3933
▁skunk	-11.3933
▁sophistication	-11.3933
▁sputters	-11.3933
▁stasis	-11.3933
▁stimulating	-11.3933
▁strives	-11.3933
▁submerg	-11.3933
▁sultry	-11.3933
▁swashbucklers	-11.3933
▁sympathies	-11.3933
▁taboo	-11.3933
▁tambor	-11.3933
▁tinsel	-11.3933
▁tremors	-11.3933
▁undeterminable	-11.3933
▁undistinguished	-11.3933
▁unentertaining	-11.3933
▁unequivocally	-11.3933
▁unflattering	-11.3933
▁unimpressively	-11.3933
▁uninflected	-11.3933
▁unrelated	-11.3933
▁vibrance	-11.3933
▁windshield	-11.3933
▁wizard	-11.3933
▁yellow	-11.3933
▁amaze	-11.3933
▁analytical	-11.3933
▁café	-11.3933
▁corpse	-11.3933
▁discarded	-11.3933
▁groundbreaking	-11.3933
▁hawn	-11.3933
▁lashing	-11.3933
▁myopic	-11.3933
▁patchwork	-11.3933
▁peace	-11.3933
▁sandwich	-11.3933
▁virtuoso	-11.3933
pola	-11.3933
▁bask	-11.3933
▁distort	-11.3933
▁downfall	-11.3933
▁olympi	-11.3933
▁rachel	-11.3933
▁russell	-11.3933
stoppingly	-11.3933
▁delusional	-11.3933
▁hazy	-11.3933
▁levy	-11.3933
▁cloak	-11.3933
▁outshined	-11.3933
▁schni	-11.3933
▁chafing	-11.3933
▁ailments	-11.3933
▁crappy	-11.3933
▁menacing	-11.3933
▁motives	-11.3933
▁sneers	-11.3933
voca	-11.3933
▁fell	-11.3933
▁meow	-11.3933
▁desert	-11.3933
▁misconceived	-11.3933
▁cringe	-11.3933
▁embarrassingly	-11.3933
▁halfwit	-11.3933
▁nazi	-11.3933
▁porno	-11.3933
▁observe	-11.3933
▁penn	-11.3933
▁delay	-11.3933
▁forthright	-11.3933
▁negate	-11.3933
▁scummy	-11.3933
▁framing	-11.3933
▁kingsley	-11.3933
bam	-11.3933
▁eyeballs	-11.3933
▁orchard	-11.3933
ulloc	-11.3933
▁afterwards	-11.3933
▁dodge	-11.3934
▁passages	-11.3934
sophi	-11.3934
▁spicy	-11.3934
▁collide	-11.3934
▁composure	-11.3934
▁admirers	-11.3934
▁occur	-11.3934
▁mournful	-11.3934
▁thro	-11.3934
nerates	-11.3934
▁iran	-11.3934
▁predi	-11.3934
▁quai	-11.3935
▁racism	-11.3935
▁awesome	-11.3935
▁doltish	-11.3935
▁cows	-11.3935
▁300	-11.3935
▁bloodletting	-11.3935
fussi	-11.3935
▁barlow	-11.3935
▁1960	-11.3935
▁inci	-11.3936
▁cere	-11.3936
▁grievous	-11.3936
▁tickled	-11.3936
▁amble	-11.3936
olini	-11.3937
rumb	-11.3937
▁sleekness	-11.3937
▁lens	-11.3937
▁16	-11.3937
▁cleansing	-11.3937
▁recreates	-11.3937
▁immaturity	-11.3937
▁muck	-11.3938
▁existentialism	-11.3938
▁publicist	-11.3938
▁uncompelling	-11.3939
▁quirkiness	-11.394
▁robustness	-11.394
▁whimsicality	-11.394
▁meanspirited	-11.394
mear	-11.394
▁hostage	-11.394
▁tele	-11.394
▁finesse	-11.3941
▁cake	-11.3941
▁illogical	-11.3941
▁demeaning	-11.3942
▁megaplexes	-11.3942
▁plagu	-11.3942
▁stylistically	-11.3943
▁taxi	-11.3944
destructiveness	-11.3945
▁purg	-11.3946
▁vulgarity	-11.3946
▁chicken	-11.3946
▁tenor	-11.3946
equil	-11.3947
ptitude	-11.3947
▁hotter	-11.3949
▁dour	-11.3949
▁hellish	-11.3952
▁journalistic	-11.3952
▁items	-11.3953
▁mends	-11.3954
▁barf	-11.3954
▁virtuous	-11.3956
▁vile	-11.3956
▁whoop	-11.3958
ubert	-11.3966
▁criticiz	-11.3972
istas	-11.3972
icent	-11.398
▁yell	-11.3983
hekh	-11.3983
semi	-11.3985
▁fled	-11.3989
▁hail	-11.3998
opens	-11.4008
mmies	-11.401
fold	-11.4057
withstand	-11.4127
valua	-11.4127
▁magg	-11.4145
referenc	-11.4167
prone	-11.4175
▁boundar	-11.4185
hearing	-11.4189
ductions	-11.4236
▁pupp	-11.4244
opping	-11.4251
operati	-11.4309
▁barbe	-11.4384
name	-11.4389
castle	-11.439
native	-11.4435
▁preferabl	-11.4513
centered	-11.4581
connected	-11.463
▁prolo	-11.463
pact	-11.464
opera	-11.4647
▁fide	-11.4656
fighters	-11.4688
torial	-11.4719
▁ferr	-11.4776
▁marina	-11.4824
▁skipp	-11.4824
rbi	-11.4836
▁emergenc	-11.4925
ograph	-11.5029
▁whee	-11.5051
lki	-11.5083
▁costum	-11.5092
▁simulat	-11.5092
realized	-11.5118
compelling	-11.5118
▁engross	-11.5119
layers	-11.5121
layered	-11.5124
pilot	-11.5124
shadows	-11.5124
80	-11.5124
drum	-11.5124
parody	-11.5124
character	-11.5124
buck	-11.5124
language	-11.5124
vampire	-11.5125
nasty	-11.5125
violent	-11.5125
second	-11.5125
load	-11.5125
impossible	-11.5125
modern	-11.5125
,	-11.5125
cinema	-11.5125
90	-11.5125
▁unfortunate	-11.5128
▁definite	-11.5128
▁fift	-11.5128
▁efficien	-11.5129
board	-11.5129
rock	-11.5131
miss	-11.5137
▁bias	-11.5141
▁replac	-11.5142
▁eccentricit	-11.5148
tween	-11.5152
▁empath	-11.5157
gotten	-11.5163
▁eag	-11.5168
▁illogic	-11.5173
▁satiric	-11.5173
▁local	-11.5174
▁write	-11.5174
▁bread	-11.518
▁scandal	-11.518
▁punctuat	-11.518
▁outrage	-11.518
vesti	-11.5181
▁morbid	-11.5181
▁confusi	-11.5181
▁author	-11.5181
▁plumme	-11.5181
▁gray	-11.5181
▁multiple	-11.5181
ruly	-11.5181
eander	-11.5181
tional	-11.5182
▁bewilder	-11.5182
▁revision	-11.5182
▁adapt	-11.5182
▁presid	-11.5182
▁lika	-11.5182
deadening	-11.5182
▁voyeur	-11.5183
adorability	-11.5183
conscientious	-11.5183
eeze	-11.5183
grubbers	-11.5183
overmanipulative	-11.5183
promoter	-11.5183
studded	-11.5183
thumpingly	-11.5183
turner	-11.5183
woolly	-11.5183
▁abrupt	-11.5183
▁adolescence	-11.5183
▁aggravating	-11.5183
▁agonizing	-11.5183
▁alterations	-11.5183
▁arrogance	-11.5183
▁astronaut	-11.5183
▁athleticism	-11.5183
▁automatic	-11.5183
▁ballerina	-11.5183
▁befallen	-11.5183
▁bettany	-11.5183
▁birmingham	-11.5183
▁broadcast	-11.5183
▁brockovich	-11.5183
▁bruised	-11.5183
▁brusqueness	-11.5183
▁brussels	-11.5183
▁bueller	-11.5183
▁calamity	-11.5183
▁campanella	-11.5183
▁censure	-11.5183
▁château	-11.5183
▁commerce	-11.5183
▁conflagration	-11.5183
▁craftsmanship	-11.5183
▁craziness	-11.5183
▁crucifixion	-11.5183
▁depleted	-11.5183
▁dimwits	-11.5183
▁discomfort	-11.5183
▁dissecting	-11.5183
▁disservice	-11.5183
▁divorce	-11.5183
▁eclipses	-11.5183
▁energizes	-11.5183
▁equalizer	-11.5183
▁excursion	-11.5183
▁fiddle	-11.5183
▁gaiety	-11.5183
▁gawky	-11.5183
▁goldbacher	-11.5183
▁grandiloquent	-11.5183
▁greenfingers	-11.5183
▁groggy	-11.5183
▁hankies	-11.5183
▁haplessness	-11.5183
▁hussein	-11.5183
▁iconography	-11.5183
▁imitative	-11.5183
▁implausibility	-11.5183
▁impudent	-11.5183
▁inconceivable	-11.5183
▁indefinitely	-11.5183
▁inferior	-11.5183
▁injustice	-11.5183
▁interference	-11.5183
▁intoxication	-11.5183
▁jeunet	-11.5183
▁kirkegaard	-11.5183
▁knickknacks	-11.5183
▁literature	-11.5183
▁luke	-11.5183
▁lulled	-11.5183
▁masochism	-11.5183
▁mermaid	-11.5183
▁mesmerize	-11.5183
▁minutiae	-11.5183
▁misogynist	-11.5183
▁mojo	-11.5183
▁monotony	-11.5183
▁motherhood	-11.5183
▁nervous	-11.5183
▁neurotic	-11.5183
▁nonconformist	-11.5183
▁obscenely	-11.5183
▁oomph	-11.5183
▁oprah	-11.5183
▁overkill	-11.5183
▁pablum	-11.5183
▁padding	-11.5183
▁perversity	-11.5183
▁piccoli	-11.5183
▁pizazz	-11.5183
▁platter	-11.5183
▁playwriting	-11.5183
▁portug	-11.5183
▁precarious	-11.5183
▁professor	-11.5183
▁profundity	-11.5183
▁rainbow	-11.5183
▁reinvigorated	-11.5183
▁repetitious	-11.5183
▁rhapsodic	-11.5183
▁shrug	-11.5183
▁skilfully	-11.5183
▁slugfest	-11.5183
▁slurs	-11.5183
▁speculative	-11.5183
▁sprawling	-11.5183
▁stimulate	-11.5183
▁stonehenge	-11.5183
▁substantive	-11.5183
▁suicidal	-11.5183
▁superhero	-11.5183
▁tadpole	-11.5183
▁tapestry	-11.5183
▁tedium	-11.5183
▁teleprompter	-11.5183
▁treachery	-11.5183
▁troubling	-11.5183
▁unacceptable	-11.5183
▁underground	-11.5183
▁unexceptional	-11.5183
▁unforgivingly	-11.5183
▁unhibited	-11.5183
▁unimpeachable	-11.5183
▁uninventive	-11.5183
▁unpersuasive	-11.5183
▁unprovoked	-11.5183
▁unshapely	-11.5183
▁velocity	-11.5183
▁verisimilitude	-11.5183
▁victorious	-11.5183
▁virtuosic	-11.5183
▁wizened	-11.5183
▁amicable	-11.5183
▁binks	-11.5183
▁napoleon	-11.5183
▁persisten	-11.5183
▁reunion	-11.5183
▁seizures	-11.5183
▁serene	-11.5183
enade	-11.5183
stomp	-11.5183
▁bigelow	-11.5183
▁cocoon	-11.5183
▁deceit	-11.5183
▁drill	-11.5183
▁guest	-11.5183
▁morsels	-11.5183
▁skyscraper	-11.5183
▁slopped	-11.5183
▁stature	-11.5183
▁woozy	-11.5183
▁track	-11.5183
reconcil	-11.5183
rlap	-11.5183
▁doomed	-11.5183
▁outlandish	-11.5183
▁uncertainties	-11.5183
▁carnage	-11.5183
▁idol	-11.5183
▁retelling	-11.5183
▁rumor	-11.5183
▁sixties	-11.5183
drunk	-11.5183
▁goodwill	-11.5183
▁65-	-11.5183
▁italics	-11.5183
▁titus	-11.5183
▁stench	-11.5183
dominant	-11.5183
▁amours	-11.5183
▁butterf	-11.5183
halant	-11.5183
▁potboiler	-11.5183
aziness	-11.5183
undra	-11.5183
▁fumes	-11.5183
▁mopes	-11.5183
bending	-11.5183
▁clips	-11.5183
▁singular	-11.5183
▁unerring	-11.5183
veté	-11.5183
▁adultery	-11.5183
▁slender	-11.5183
▁fireworks	-11.5183
▁elizabethans	-11.5183
▁musclefest	-11.5183
▁deadeningly	-11.5183
▁melange	-11.5183
▁cheapening	-11.5183
▁engine	-11.5183
▁blueprint	-11.5183
▁standbys	-11.5183
▁conspiratorial	-11.5183
▁sterling	-11.5183
▁mitch	-11.5184
▁jacket	-11.5184
▁discourse	-11.5184
▁affectation	-11.5184
trail	-11.5184
▁bewilderingly	-11.5184
atherine	-11.5184
▁torrent	-11.5184
▁amok	-11.5184
▁reput	-11.5184
▁communication	-11.5184
athers	-11.5184
▁interdependence	-11.5184
▁hangover	-11.5184
▁snake	-11.5184
▁lucia	-11.5184
▁president	-11.5184
▁nagging	-11.5184
▁singh	-11.5185
▁haul	-11.5185
▁legs	-11.5185
▁didacticism	-11.5185
▁cannibal	-11.5185
delete	-11.5185
▁punctuation	-11.5185
▁flopping	-11.5185
▁baseball	-11.5185
▁coast	-11.5186
▁marred	-11.5186
▁carpets	-11.5186
▁univ	-11.5186
▁demonstration	-11.5186
▁boorishness	-11.5186
kov	-11.5187
▁insinuati	-11.5187
mics	-11.5187
▁scant	-11.5187
▁eventful	-11.5188
▁purity	-11.5189
popping	-11.5189
▁moist	-11.5189
rren	-11.5189
filth	-11.519
▁preciseness	-11.5191
▁framework	-11.5191
ucts	-11.5191
▁unclean	-11.5192
▁breathless	-11.5192
▁flavorless	-11.5193
ntine	-11.5194
▁agit	-11.5195
▁eisen	-11.5198
▁rome	-11.5198
▁lick	-11.5199
▁thesps	-11.5204
▁route	-11.521
hanks	-11.5227
imat	-11.5232
lowi	-11.5255
ppers	-11.5285
▁uproar	-11.5342
▁formalis	-11.5344
vices	-11.5357
rnie	-11.5429
▁affect	-11.5539
orize	-11.5647
cessive	-11.5699
sentimentalizing	-11.5701
crushing	-11.5718
▁conjur	-11.5761
amme	-11.5766
bursts	-11.5836
rki	-11.5845
litter	-11.5866
characterized	-11.587
trott	-11.5881
wanes	-11.5972
▁whiff	-11.6087
▁introspecti	-11.6095
ological	-11.6109
cutter	-11.6146
otations	-11.6146
broil	-11.6221
buff	-11.6238
rmed	-11.631
own	-11.6404
ange	-11.6442
▁overwhelm	-11.6485
urp	-11.6504
▁argu	-11.651
numbing	-11.6512
▁religio	-11.6516
ackles	-11.653
▁enthrall	-11.6547
case	-11.655
puff	-11.6551
▁watt	-11.6551
embracing	-11.6552
shine	-11.6552
glorified	-11.6552
bio	-11.6552
model	-11.6553
sweeping	-11.6553
amused	-11.6553
paul	-11.6553
suffering	-11.6553
general	-11.6553
barrel	-11.6553
television	-11.6553
amount	-11.6553
office	-11.6553
green	-11.6554
dirty	-11.6554
true	-11.6554
indie	-11.6554
gone	-11.6554
1/2	-11.6555
large	-11.6555
needed	-11.6558
ogeni	-11.6573
▁motivate	-11.658
▁overuse	-11.658
▁suppose	-11.658
▁philosoph	-11.6583
resents	-11.6584
▁jazz	-11.6585
▁industr	-11.6585
▁cinematograph	-11.6585
gasm	-11.6587
▁complet	-11.6593
▁grad	-11.6593
nfluence	-11.6593
ocket	-11.6598
aggers	-11.6601
▁escapis	-11.6601
▁propos	-11.6602
▁flourish	-11.6602
▁india	-11.6605
▁sleek	-11.6606
righteous	-11.6606
iversity	-11.6608
epp	-11.6608
delusion	-11.6609
▁celeb	-11.6609
▁repell	-11.661
▁minimal	-11.661
flam	-11.6611
hicken	-11.6611
▁contempt	-11.6611
invent	-11.6611
▁muscle	-11.6611
burg	-11.6611
escent	-11.6611
è	-11.6611
▁claustroph	-11.6611
▁jacob	-11.6611
▁pessimist	-11.6611
▁trivializ	-11.6611
fascism	-11.6611
fecta	-11.6611
fetched	-11.6611
frosty	-11.6611
gnashing	-11.6611
lific	-11.6611
mutilation	-11.6611
obsess	-11.6611
servant	-11.6611
winded	-11.6611
▁10,000	-11.6611
▁aladdin	-11.6611
▁ambience	-11.6611
▁anarchist	-11.6611
▁anticipation	-11.6611
▁antiseptic	-11.6611
▁armageddon	-11.6611
▁astounds	-11.6611
▁avalanche	-11.6611
▁barbarism	-11.6611
▁befuddled	-11.6611
▁benchmark	-11.6611
▁blob	-11.6611
▁bloodshed	-11.6611
▁buffoons	-11.6611
▁cardoso	-11.6611
▁cassavetes	-11.6611
▁catharsis	-11.6611
▁chaiken	-11.6611
▁chemically	-11.6611
▁contradiction	-11.6611
▁contradicts	-11.6611
▁cotswolds	-11.6611
▁curtain	-11.6611
▁deafening	-11.6611
▁dehumanizing	-11.6611
▁desolate	-11.6611
▁disposition	-11.6611
▁dizzy	-11.6611
▁dungpile	-11.6611
▁earmarks	-11.6611
▁eclair	-11.6611
▁elite	-11.6611
▁elvi	-11.6611
▁energized	-11.6611
▁entrée	-11.6611
▁environs	-11.6611
▁euphoria	-11.6611
▁eviction	-11.6611
▁exhibit	-11.6611
▁expanse	-11.6611
▁explanation	-11.6611
▁explosive	-11.6611
▁facade	-11.6611
▁flakeball	-11.6611
▁flatulence	-11.6611
▁flck	-11.6611
▁flexible	-11.6611
▁flibbertigibbet	-11.6611
▁flux	-11.6611
▁freezers	-11.6611
▁frustrates	-11.6611
▁gelati	-11.6611
▁gibberish	-11.6611
▁glides	-11.6611
▁globalizing	-11.6611
▁goosebumps	-11.6611
▁hibernation	-11.6611
▁homophobia	-11.6611
▁humidity	-11.6611
▁hypocrisy	-11.6611
▁impatient	-11.6611
▁indifferent	-11.6611
▁indomitability	-11.6611
▁ineffective	-11.6611
▁inelegant	-11.6611
▁innovators	-11.6611
▁innumerable	-11.6611
▁insufficiently	-11.6611
▁intrepid	-11.6611
▁irritates	-11.6611
▁kaige	-11.6611
▁kubrick	-11.6611
▁luscious	-11.6611
▁matrix	-11.6611
▁medicine	-11.6611
▁melancholia	-11.6611
▁mercilessly	-11.6611
▁metaphysical	-11.6611
▁misdemeanor	-11.6611
▁moldering	-11.6611
▁monitor	-11.6611
▁neorealism	-11.6611
▁neutral	-11.6611
▁nightmarish	-11.6611
▁nonconformity	-11.6611
▁nosedive	-11.6611
▁nouvelle	-11.6611
▁nurse	-11.6611
▁ontiveros	-11.6611
▁origins	-11.6611
▁patrolmen	-11.6611
▁perkiness	-11.6611
▁pessimism	-11.6611
▁plucks	-11.6611
▁poise	-11.6611
▁position	-11.6611
▁posturing	-11.6611
▁prepackaged	-11.6611
▁prescribed	-11.6611
▁pretention	-11.6611
▁prettiest	-11.6611
▁principled	-11.6611
▁psychopathic	-11.6611
▁puppets	-11.6611
▁redundancies	-11.6611
▁refined	-11.6611
▁repeating	-11.6611
▁respond	-11.6611
▁retreat	-11.6611
▁reviewers	-11.6611
▁revolutionaries	-11.6611
▁rumblings	-11.6611
▁sandbox	-11.6611
▁scuzzy	-11.6611
▁shakesperean	-11.6611
▁sleaziness	-11.6611
▁sleazy	-11.6611
▁slumming	-11.6611
▁slump	-11.6611
▁sprouts	-11.6611
▁straddle	-11.6611
▁studied	-11.6611
▁substandard	-11.6611
▁substitutable	-11.6611
▁sulky	-11.6611
▁taxicab	-11.6611
▁telegrams	-11.6611
▁torpedo	-11.6611
▁touchstone	-11.6611
▁turntablists	-11.6611
▁undernourished	-11.6611
▁underrehearsed	-11.6611
▁unengaging	-11.6611
▁unflappable	-11.6611
▁unsettled	-11.6611
▁valentine	-11.6611
▁wallflower	-11.6611
▁wreaked	-11.6611
▁addictive	-11.6611
▁cussing	-11.6611
▁funnybone	-11.6611
▁ghandi	-11.6611
▁instilled	-11.6611
▁linearity	-11.6611
▁perennial	-11.6611
▁prickly	-11.6611
▁pulpiness	-11.6611
▁salute	-11.6611
▁selves	-11.6611
▁toddler	-11.6611
bash	-11.6611
cogni	-11.6611
▁embellish	-11.6611
▁gorefest	-11.6611
▁influential	-11.6611
▁overinflated	-11.6611
▁purport	-11.6611
▁reverie	-11.6611
▁splatter	-11.6611
▁frig	-11.6611
▁resume	-11.6611
▁cheerfully	-11.6611
▁clerk	-11.6611
▁collar	-11.6611
▁contact	-11.6611
▁elegy	-11.6611
▁flatula	-11.6611
▁modus	-11.6611
▁monkey	-11.6611
▁wonderment	-11.6611
-22	-11.6611
amina	-11.6611
▁aloof	-11.6611
▁belief	-11.6611
▁gedeck	-11.6611
▁missive	-11.6611
▁pissed	-11.6611
▁slide	-11.6611
▁sparse	-11.6611
▁undisputed	-11.6611
uva	-11.6611
▁druggy	-11.6611
▁quaint	-11.6611
▁storm	-11.6611
dunk	-11.6611
▁igby	-11.6611
▁inquiry	-11.6611
▁sitcomishly	-11.6611
▁properties	-11.6611
▁meager	-11.6611
▁punchier	-11.6611
cumbers	-11.6611
▁adjusting	-11.6611
▁imperfect	-11.6611
▁honeys	-11.6611
eparable	-11.6612
▁saddest	-11.6612
▁orlean	-11.6612
▁dimming	-11.6612
spinner	-11.6612
▁firmly	-11.6612
▁fusion	-11.6612
▁painstaking	-11.6612
ctr	-11.6612
thodo	-11.6612
▁oddballs	-11.6612
▁agile	-11.6612
▁botched	-11.6612
▁yourselves	-11.6612
▁retard	-11.6612
▁esteemed	-11.6612
altering	-11.6612
▁continuum	-11.6612
▁invented	-11.6612
▁freshening	-11.6612
▁opportunists	-11.6612
▁pithy	-11.6612
▁usher	-11.6613
▁cutoffs	-11.6613
▁creed	-11.6613
▁dictat	-11.6613
▁fragmentary	-11.6613
▁1950	-11.6613
▁lauper	-11.6613
▁comfy	-11.6613
▁loyalty	-11.6613
▁delusions	-11.6613
▁activism	-11.6613
▁plummets	-11.6614
verting	-11.6614
mocrat	-11.6614
stabbing	-11.6615
▁diaz	-11.6615
▁scum	-11.6616
▁liking	-11.6618
arker	-11.6621
var	-11.6621
▁heap	-11.6622
devils	-11.6637
fried	-11.6637
dicap	-11.6645
mogen	-11.665
▁clari	-11.667
mpet	-11.672
▁dominate	-11.6774
▁advise	-11.694
warded	-11.7083
extr	-11.7118
▁infuse	-11.7163
owering	-11.7255
marily	-11.7382
▁marri	-11.7523
lphi	-11.7587
▁strang	-11.7713
▁styl	-11.7786
uppie	-11.7816
▁reducti	-11.7819
▁ske	-11.7822
lotte	-11.7836
fusing	-11.7872
breathing	-11.7887
▁tinge	-11.7888
▁reef	-11.792
▁ingredient	-11.792
▁participant	-11.7921
▁moviegoer	-11.7926
notes	-11.7945
napper	-11.8013
▁libr	-11.8142
▁depress	-11.8157
rano	-11.8166
worth	-11.8194
amusing	-11.8214
knowledge	-11.8216
course	-11.8218
vulnerable	-11.8219
exploiti	-11.8219
jumbo	-11.8219
timid	-11.8219
swallow	-11.8219
aggressive	-11.8219
shakespeare	-11.822
expression	-11.822
demanding	-11.822
image	-11.822
intellectual	-11.822
surprise	-11.822
community	-11.822
revealing	-11.822
lived	-11.822
frequently	-11.822
growing	-11.822
fatal	-11.822
fights	-11.822
grant	-11.822
rendered	-11.822
brilliant	-11.822
disney	-11.822
death	-11.822
directed	-11.822
season	-11.822
oscar	-11.822
thriller	-11.822
▁terminal	-11.8222
▁thorough	-11.8224
palm	-11.8233
squeezed	-11.8234
▁reject	-11.8236
▁ventur	-11.8241
print	-11.8244
▁ambiguit	-11.8251
▁arbitrar	-11.8251
▁murk	-11.8252
▁brav	-11.8259
▁lyric	-11.8267
▁monument	-11.8268
compromising	-11.8272
signed	-11.8273
▁boorish	-11.8273
▁remark	-11.8274
hig	-11.8275
annibal	-11.8275
▁discuss	-11.8276
looney	-11.8276
cussion	-11.8277
▁buoy	-11.8277
▁recr	-11.8277
▁pipe	-11.8277
blime	-11.8278
riety	-11.8278
entific	-11.8278
▁circumstan	-11.8278
orgas	-11.8278
▁instruct	-11.8278
=	-11.8278
absorbed	-11.8278
absorption	-11.8278
arapsychological	-11.8278
contructed	-11.8278
defining	-11.8278
grubbing	-11.8278
knuckled	-11.8278
reducing	-11.8278
ó	-11.8278
í	-12.0278
á	-12.2778
ã	-13.1111
ü	-14.4462
â	-14.4463
+	-14.4464
ï	-14.4465
!	-14.4466
*	-14.4467
?	-14.4468
;	-14.4469
:	-14.447
(	-14.4471
)	-14.4472
`	-14.4473
